/**
  ******************************************************************************
  * @file    network_data_params.c
  * @author  AST Embedded Analytics Research Platform
  * @date    2026-06-03T16:20:19+0800
  * @brief   AI Tool Automatic Code Generator for Embedded NN computing
  ******************************************************************************
  * Copyright (c) 2026 STMicroelectronics.
  * All rights reserved.
  *
  * This software is licensed under terms that can be found in the LICENSE file
  * in the root directory of this software component.
  * If no LICENSE file comes with this software, it is provided AS-IS.
  ******************************************************************************
  */

#include "network_data_params.h"


/**  Activations Section  ****************************************************/
ai_handle g_network_activations_table[1 + 2] = {
  AI_HANDLE_PTR(AI_MAGIC_MARKER),
  AI_HANDLE_PTR(NULL),
  AI_HANDLE_PTR(AI_MAGIC_MARKER),
};




/**  Weights Section  ********************************************************/
AI_ALIGNED(32)
const ai_u64 s_network_weights_array_u64[12290] = {
  0x3f6eb3eb3fd9d85fU, 0x3e8e290d3e4db110U, 0x4007735f401190f1U, 0xc06d31f3c056ebb2U,
  0xbfca24e8becc083cU, 0xc026ce23c0519fabU, 0x4085cd0b3f3683c6U, 0x3fc19c00401b6e8bU,
  0x3eb4e773bfe92ed0U, 0x3fbae6ea3e857f4bU, 0xbecec29e3f897c04U, 0xbe854251c00c45b2U,
  0xbf333f43bffb45daU, 0xbf007f29bf527423U, 0x40a03360c09c1a9fU, 0xc0a3bf76403e8135U,
  0x3fd012d33efd0040U, 0xbfc3f4143fcd1b15U, 0xbed814f43f37623fU, 0x3e0a87693fc5bcc9U,
  0x3f2ff7dc3f1976c6U, 0x3d85dfb8bf57bafdU, 0xbf49395c3db228bfU, 0xbf9b3810bea85db8U,
  0x3fbf5a413ea25537U, 0x3fa2d2533de9afbaU, 0x3f19f1393fcd93f2U, 0xbfe586153fe87523U,
  0x3faaf0a8bf32715cU, 0x3f9a6490c072885fU, 0xc09c2f243fe1ca11U, 0x3f7832da4060f4c8U,
  0x3f11bf363ee9bd81U, 0xc01cb784401a076bU, 0xbdb456a03fe9bb20U, 0x3f36f5d1bfa4b528U,
  0x3e4c39983e74908dU, 0x3ea3c6483fc63555U, 0xbfbb2f08bfb05bd9U, 0xbfa6413a3f0c0063U,
  0x3e433958bd9ad534U, 0xbd64e221bdde26c5U, 0xbdf91433be3c7dfdU, 0xbbd76b6a3d9ad534U,
  0x3e39204fbea9fac2U, 0xbc86a322be99265dU, 0x3da19090be50b00fU, 0x3cbc7dfdbe5e26c5U,
  0x3cbc7dfd3ca19090U, 0xbcd76b6abd1419d9U, 0xbd1419d9be7258d7U, 0x3e3264f4be86a322U,
  0xbd8d5e7ebda19090U, 0xbe540dbcbd7fcf8eU, 0xbdf91433U, 0xbc576b6abdde26c5U,
  0x3cbc7dfdbe1e32e2U, 0xbebacf26bd1419d9U, 0xbc219090bdffcf8eU, 0x3d64e221be034575U,
  0x3c2190903e3c7dfdU, 0xbe84f44b3e99265dU, 0xbdc9f4b33d219090U, 0x3e4339583cd76b6aU,
  0xbed5bc93be3c7dfdU, 0x3df914333da19090U, 0xbe3c7dfd3e433958U, 0xbca190903e35c2a1U,
  0x3bd76b6abdb5c2a1U, 0x3c86a3223d7fcf8eU, 0xbe90bc2bbe618473U, 0x3e4697063e926b02U,
  0x3d9419d93d7258d7U, 0x3d86a3223df91433U, 0x3e177787bda19090U, 0x3e2ba9983df258d7U,
  0xbc44c88abe3c9584U, 0xbe939668bdccfb90U, 0xbd83305c3e0f7ce5U, 0x3e939668bdac2f79U,
  0x3e387c013e1fe2f0U, 0xbee7a1623e0749dfU, 0x3ddd619b3e2c2f79U, 0x3d75faacbdedc7a7U,
  0x3e44c88a3ec2bbc9U, 0xbdbc95843d939668U, 0xbe139668bcc4c88aU, 0x3dfe2db2bed52e96U,
  0xbe95a329bd8b6362U, 0xbe34627ebde594a1U, 0xbe48e20d3e71e12aU, 0x3c83305cbcc4c88aU,
  0x3e48e20d3e0749dfU, 0x3c03305c3f0229fbU, 0xbe6dc7a7be3048fcU, 0x3de594a13dc4c88aU,
  0xbc44c88a3d139668U, 0x3e1fe2f03e617b1eU, 0xbe8f7ce5bcc4c88aU, 0xbc83305cbd939668U,
  0xbe0749df3dccfb90U, 0xbd03305cbd34627eU, 0xbdbc95843ca3fc73U, 0xbe0749df3d75faacU,
  0xbd139668bd75faacU, 0x3e0f7ce5bb83305cU, 0xbe4cfb903cc4c88aU, 0xbd34627e3e69ae24U,
  0xbdc4c88abdc4c88aU, 0xbc83305cbeb66f40U, 0xbe95a3293da3fc73U, 0x3c83305c3d83305cU,
  0x3d73b5853afb9216U, 0xbd34d1003dc09bd9U, 0xbde00e1cbcebd8f5U, 0xbe5443433e1755e1U,
  0x3cfb9216bd2cf46fU, 0x3d6bd8f53dacf46fU, 0xbdebd8f5bd81b753U, 0xbe1367993dc8786aU,
  0x3e409bd9bb7b9216U, 0x3e01b753bd0d822cU, 0x3dc8786abe1b442aU, 0xbe4681453d955ebdU,
  0x3d2517de3c5c1fd3U, 0xbdb4d100bdd44343U, 0xbd4c66b2bd3cad90U, 0xbe1f3272bd994d05U,
  0xbcdc1fd3bda517deU, 0xbccc66b23cdc1fd3U, 0x3df3b585bd8993e4U, 0xbcbcad90be1755e1U,
  0x3debd8f5bdbcad90U, 0x3d917075bcbcad90U, 0x3e136799bcfb9216U, 0x3da12996bdcc66b2U,
  0xbde3fc64bdefc73dU, 0xbd2517de3dc48a21U, 0x3d73b5853c5c1fd3U, 0x3db4d100bde3fc64U,
  0xbd0d822c3d3cad90U, 0xbe1b442abd8993e4U, 0x3df3b5853debd8f5U, 0xbd448a21be799af2U,
  0xbda90627bd85a59cU, 0xbe73b585bde7eaacU, 0xbcdc1fd33de7eaacU, 0x3defc73dbe5054faU,
  0x3d7c62133e8533c3U, 0xbd8c367cbe40caebU, 0x3daf441bbdee5ca0U, 0xbd8533c3be24c005U,
  0x3de759e63e133936U, 0xbe08b51f3be0572dU, 0xbd8c367cbdd95474U, 0xbe08b51fbe1dbd4cU,
  0xbdfc6213be0533c3U, 0xbe1a3bef3da84162U, 0xbbe0572dbce0572dU, 0xbe01b266be2f441bU,
  0x3dc44c473dfc6213U, 0xbdee5ca03db646d5U, 0x3dcb4f013e39c831U, 0xbd2841623e40caebU,
  0x3dd251ba3d3646d5U, 0xbdee5ca03eaa0210U, 0x3e1a3befbdcb4f01U, 0xbdfc62133da13ea8U,
  0xbede967f3d5251baU, 0x3df55f593e0533c3U, 0x3d5251babe3d498eU, 0xbdc44c473dd251baU,
  0x3da13ea8be32c578U, 0x3c284162be5251baU, 0x3d0c367c3cc44c47U, 0x3e5cd5d03dcb4f01U,
  0xbce0572dbeaf441bU, 0xbd7c62133d6e5ca0U, 0x3ce0572d3e0fb7d9U, 0x3e8c367c3e3646d5U,
  0x3d0c367cbe9bfc9dU, 0x3e0533c3bdfc6213U, 0xbdaf441b3dcb4f01U, 0x3e7c62133d8c367cU,
  0xbda2e3613e006e5bU, 0x3dcebe22bce1899aU, 0x3cc87a503de7cd6cU, 0xbdc2367e3d2f6b06U,
  0xbe197da5bdfa98e4U, 0x3ec6e95b3d22e361U, 0xbd89d4173dbbf2abU, 0x3d965bbcbd3bf2abU,
  0xbe2f6b06be35aed8U, 0xbdbbf2abbdc2367eU, 0x3d487a50bd5501f5U, 0xbdfa98e4bd2f6b06U,
  0xbe006e5b3c487a50U, 0x3d9c9f8e3ce1899aU, 0x3d09d417bdb5aed8U, 0xbb487a50be06b22eU,
  0xbdc87a50bd3bf2abU, 0x3e6e113fbdc2367eU, 0xbd965bbc3d09d417U, 0x3d22e3613e2c491dU,
  0xbe9017eabea7963fU, 0x3d965bbcbd7a98e4U, 0xbdc87a50bdb5aed8U, 0x3d6e113f3d839044U,
  0xbd965bbcbe4b9c39U, 0x3dbbf2ab3da92734U, 0xbc965bbcbc965bbcU, 0x3da2e3613d5501f5U,
  0xbe328cefbdee113fU, 0xbdb5aed8be197da5U, 0xbdc87a503e3f1494U, 0xbcfa98e4bd6e113fU,
  0xbe64ab83be7776fbU, 0x3d61899abe09d417U, 0x3caf6b06be22e361U, 0x3d7a98e43e487a50U,
  0x3bac9b133e5d26b0U, 0x3da7363a3dc7934eU, 0x3d422e75bd21d162U, 0xbe01744ebe57c1d8U,
  0x3dbcc99d3dd7c1d8U, 0xbe2f4d7f3ced553aU, 0xbd86d927bdfd83c4U, 0xbe31ffecbdd25cffU,
  0x3d21d1623e0426bbU, 0xbe47934e3e34b258U, 0x3e0c3dffbd6d553aU, 0x3dd7c1d8bd57c1d8U,
  0x3e2f4d7fbd01744eU, 0xbd01744e3d2c9b13U, 0x3d8c3dffbdd7c1d8U, 0xbd0c3dffbe0ef06cU,
  0x3e1707b1bc01744eU, 0x3c2c9b13bc01744eU, 0x3d0c3dff3d8c3dffU, 0xbc57c1d8bea0782cU,
  0x3e01744e3e91a2d8U, 0xbdbcc99dbdc22e75U, 0xbe44e0e23ced553aU, 0x3d0c3dffbeab41ddU,
  0x3cac9b133d422e75U, 0xbe6d553abe2483ceU, 0xbdd25cffbd628b89U, 0xbd57c1d8be422e75U,
  0x3cd7c1d83ded553aU, 0xbd57c1d8bd3764c4U, 0xbd57c1d83d81744eU, 0xbe72ba13be92fc0eU,
  0x3d8c3dffbd3764c4U, 0x3d91a2d83d422e75U, 0x3e4faa933da1d162U, 0x3d628b89be4faa93U,
  0xbdb6bc04bded8e05U, 0x3da90783be447084U, 0x3d6d8e053cdb4804U, 0x3e3904c4bcdb4804U,
  0xbdffd405bdf6b105U, 0xbdffd405be910ba3U, 0x3c5b48043d36bc04U, 0x3e3904c43dc47084U,
  0xbe190a433d36bc04U, 0xbd847b83be8232c3U, 0xbde8fc853e4227c4U, 0x3e3fdf04be123003U,
  0x3ca476033c923003U, 0x3d522504be6fd6c5U, 0xbd3fdf04bcb6bc04U, 0xbddfd9853e222d43U,
  0x3d1230033bdb4804U, 0x3e646b05be2b5044U, 0x3c9230033d247603U, 0x3d36bc04bd9b5303U,
  0x3e0fe7433d96c183U, 0x3e6d8e053cb6bc04U, 0x3db6bc043d7fd405U, 0xbd6d8e053d8d9e83U,
  0xbd123003bd923003U, 0xbdffd405be646b05U, 0xbd890d03bd090d03U, 0xbd890d033ddfd985U,
  0x3d847b83be16c183U, 0xbc5b4804bdc47084U, 0xbd5b480400000000U, 0xbb923003bd9fe483U,
  0x3d5b480400000000U, 0xbe090d033ded8e05U, 0x3c7fd4053db22a84U, 0x3e0d9e83bdbb4d84U,
  0x3d5b2c94bdb08e94U, 0x3b42d24bbcc2d24bU, 0x3db08e943d4eff70U, 0xbc42d24bbd7386deU,
  0x3e815fa63e24616fU, 0xbd7386de3caa7802U, 0xbdd51602be3cbbb9U, 0xbcdb2c94be18344bU,
  0x3e2156263e8a8181U, 0xbdaa7802bcdb2c94U, 0xbdffb402be0f126fU, 0xbe45dd943c121db8U,
  0x3d8c07263d5b2c94U, 0xbdceff70bdbcbbb9U, 0xbdb08e94bc42d24bU, 0xbd8c07263d6759b9U,
  0x3e308e94bcc2d24bU, 0xbd121db8bd5b2c94U, 0xbc7386de3e02e54aU, 0xbd85f0943d4eff70U,
  0x3e152901be98344bU, 0xbd9e4addbcc2d24bU, 0xbd6759b9be3399ddU, 0xbdf386de3d1e4addU,
  0x3df99d703d42d24bU, 0xbda4616fbd121db8U, 0x3e08fbddbd85f094U, 0x3d4eff703e05f094U,
  0xbd121db8beb08e94U, 0xbd6759b9bdceff70U, 0x3e4eff7000000000U, 0xbd1e4add3bc2d24bU,
  0xbe6a6502bec14ca6U, 0xbd36a526bde14327U, 0x3e3fc7023e0c0726U, 0x3d7fb402bdc8e8ddU,
  0xbd887fa13e04e810U, 0xbe373208be16dde8U, 0x3dbac999bd7442b5U, 0x3d01507ebee418a5U,
  0xbc65e46e3e70ab23U, 0xbebc95623e5b1db9U, 0xbd96dde8be70ab23U, 0x3c2c6b52bea8d3c1U,
  0x3be5e46ebd887fa1U, 0xbe3e612b3e7f096aU, 0xbe65e46ebd887fa1U, 0x3c2c6b52be01507eU,
  0xbe01507ebd01507eU, 0x3e697c003dfb71d8U, 0xbe45904f3dc1f8bdU, 0xbe84e810bd9e0d0cU,
  0x3e21a49d3e505704U, 0x3e3002e43eb73208U, 0x3d96dde8be3ac999U, 0xbdc1f8bdbdfb71d8U,
  0xbc2c6b52bcac6b52U, 0x3be5e46ebce5e46eU, 0xbdac6b52bc65e46eU, 0x3b65e46ebd7442b5U,
  0x3e253c2fbdc927e0U, 0xbe3ac999be01507eU, 0x3d5786273e21a49dU, 0x3e04e810bd01507eU,
  0x3ea1a49d3cac6b52U, 0x3e04e810be0c1733U, 0xbd5786273d578627U, 0xbd3ac999bd9e0d0cU,
  0x3e0c1733bb65e46eU, 0x3e6d1391bd2c6b52U, 0x3df442b53d7442b5U, 0x3e53ee95bcac6b52U,
  0xbe8efbdb3ccc983fU, 0x3e171f003db0b208U, 0x3d5f31babda2beedU, 0xbe0485863dac0baaU,
  0xbe4c983fbdcc983fU, 0xbe37ab963e78c4c1U, 0x3cdf31babcf1cb34U, 0xbde3d8183e0b7f14U,
  0x3db0b20800000000U, 0xbe0dd2433e14cbd1U, 0x3d9e188ebc94cbd1U, 0x3de3d8183e3c51f5U,
  0x3c39fec5be092be5U, 0x3cdf31ba3d14cbd1U, 0xbddf31babc39fec5U, 0x3ccc983f3d5f31baU,
  0x3e39fec5be6d24d5U, 0x3c14cbd13b94cbd1U, 0xbccc983f3d39fec5U, 0xbdd5e4fc3e741e63U,
  0xbc5f31babe93a239U, 0xbe1025723e0dd243U, 0xbe0b7f14bb94cbd1U, 0x3d7b17f1bb94cbd1U,
  0x3c94cbd1bb14cbd1U, 0x3ddf31ba3b94cbd1U, 0x3dbea524bde3d818U, 0x3b94cbd1bd86d8b5U,
  0x3c94cbd1bd5f31baU, 0xbddf31babdf67192U, 0x3bdf31ba3d4c983fU, 0xbd434b823e197230U,
  0xbc39fec53d39fec5U, 0xbd94cbd13cdf31baU, 0x3dbea5243e06d8b5U, 0x3da7654b3d0b7f14U,
  0xbe2b214e3d3e2501U, 0x3e0845303e14f252U, 0xbe3177df3dea82f8U, 0xbdea82f8be5453fdU,
  0xbeb96414be838443U, 0x3d4ad223be4ad223U, 0xbe2e4c96be11c709U, 0xbc981d9abe1e742bU,
  0xbe3e2501beab214eU, 0xbe0e9bc1be81ee9eU, 0xbe3af9b83e2b214eU, 0xbc981d9a3d7d86acU,
  0x3c981d9a3e37ce70U, 0x3e1b48e33e838443U, 0x3e1b48e3bbcad223U, 0xbdbe25013e181d9aU,
  0xbe5128b4bde42c67U, 0x3d577f45be8e9bc1U, 0x3d70d98a3c181d9aU, 0xbce42c67bd8b7078U,
  0x3d0b7078bd181d9aU, 0x3c7d86acbe415049U, 0x3e14f2523d24cabcU, 0xbe0e9bc13dddd5d6U,
  0xbd642c67bbcad223U, 0x3d70d98abd577f45U, 0x3bcad223be181d9aU, 0x3d70d98a3de42c67U,
  0xbec93c7fbe2e4c96U, 0x3ce42c67bd642c67U, 0xbcb177dfbd8519e7U, 0xbcb177df3d9e742bU,
  0xbd7d86acbdbe2501U, 0x3dc47b92bdb177dfU, 0x3ccad223bdbe2501U, 0xbd642c673c7d86acU,
  0x3e2653e3bd7cd16dU, 0xbdd4e6413d95b1e6U, 0x3d1facb1bc050fe9U, 0xbdc797dd3e24aa16U,
  0x3e304eae3d54e641U, 0xbdec2f703d40f0abU, 0x3cacfb153d9facb1U, 0x3cba49793ddb8d73U,
  0xbb54e6413da653e3U, 0x3d1facb13d1facb1U, 0xbc6f8309bdf62a3bU, 0xbd19057f3d54e641U,
  0x3de8dbd7bc1facb1U, 0x3d4e3f0f3d6234a5U, 0x3d7cd16d3db04eaeU, 0x3d050fe93d886382U,
  0x3e21567d3c850fe9U, 0xbd8f0ab43e03661cU, 0x3c54e6413e2ea4e1U, 0x3cacfb153dba4979U,
  0x3da9a77c3df97dd4U, 0x3d6234a53e533c74U, 0x3dd4e6413d2653e3U, 0x3e2b5148bbd4e641U,
  0x3c1facb1be0f0ab4U, 0x3e01bc503d99057fU, 0x3e0863823dba4979U, 0x3e03661c3e125e4dU,
  0xbd33a247bc850fe9U, 0x3d95b1e63dec2f70U, 0x3e175bb23e001283U, 0x3e03661c3dec2f70U,
  0xbd0bb71bbe15b1e6U, 0x3de8dbd73cba4979U, 0xbcc797dd3dbd9d12U, 0xbcd4e6413dbd9d12U,
  0xbdf020a3be5f5fd9U, 0x3ea787e3bdea8b0aU, 0xbe9991e5bd2787e3U, 0x3da787e3U,
  0x3d32b314be3b1379U, 0x3e4e9f0f3d2787e3U, 0xbeb14daebdf5b63cU, 0xbe81d61d3d9c5cb2U,
  0xbdce9f0f3cdf5fd9U, 0x3d86064fbe5169dbU, 0x3e3b13793e9f277eU, 0x3df5b63c3dd9ca40U,
  0xbe16c719be913180U, 0x3d5434a83dd434a8U, 0xbe2787e3bde4f572U, 0xbdfb4bd43e59ca40U,
  0xbe490976be788108U, 0x3dd9ca40bda787e3U, 0xbd5434a8be0e66b4U, 0xbdbdde45be08d11bU,
  0xbdd9ca40bd96c719U, 0x3dce9f0f3e490976U, 0x3dad1d7b3e5434a8U, 0x3e788108bcc90976U,
  0xbe8070b63d2787e3U, 0xbe56ff743cb2b314U, 0xbcb2b3143e75b63cU, 0x3d06064fbdb848adU,
  0xbe84a0e9bc32b314U, 0xbdd434a83e033b83U, 0x3bb2b3143e32b314U, 0x3e13fc4dbe0070b6U,
  0xbe6d55d73e9991e5U, 0x3bb2b3143d5434a8U, 0x3e9296e63dfb4bd4U, 0xbd96c719be0e66b4U,
  0xbe7d9dcebec94edcU, 0xbe7746a93e1e82a1U, 0xbe2e5c7e3d9e82a1U, 0xbe4161ed3d70ef84U,
  0xbe11d457bebb0ac8U, 0xbe6dc3f1bdd13bcaU, 0xbe1e82a1be70ef84U, 0xbccae4a53c7d9dceU,
  0xbd8b7d31bdd792efU, 0xbe8064b03e21ae33U, 0x3c7d9dce3dfd9dceU, 0xbdb7df36bc7d9dceU,
  0xbb4ae4a5bbcae4a5U, 0xbe676ccc3d318810U, 0x3c7d9dce3bcae4a5U, 0x3bcae4a5bd64413aU,
  0xbe3e365bbd318810U, 0xbe88519f3d64413aU, 0xbce4413a3e21ae33U, 0x3bcae4a5bd3e365bU,
  0x3e2e5c7e3db7df36U, 0xbe513bca3d5792efU, 0x3e34b3a3be448d80U, 0xbde4413a3d24d9c6U,
  0xbc182b7c3c982b7cU, 0xbe3b0ac83c982b7cU, 0x3e6dc3f13c7d9dceU, 0xbb4ae4a5be0ea8c4U,
  0x3e0ea8c4bda4d9c6U, 0xbe1b570e3df746a9U, 0x3dc48d803dc48d80U, 0x3dc48d803d85260cU,
  0x3e903e8d3bcae4a5U, 0xbe54675d3e01fa7aU, 0x3d24d9c6bc7d9dceU, 0xbdd792efbcb18810U,
  0xbdab8b3dbccb4fb1U, 0xbcfe239dbc987bc5U, 0xbe0bc6cabd4b4fb1U, 0x3dcb4fb1bcfe239dU,
  0xbe31e5bb3dc4f533U, 0xbcfe239d3d922147U, 0xbd2530c0bd64b9a7U, 0x3db1e5bbbdc4f533U,
  0xbdcb4fb1be6e4163U, 0x3e7e239dbe922147U, 0xbda530c03d5804acU, 0xbb4b4fb1bcb1e5bbU,
  0xbccb4fb13dc4f533U, 0x3de4b9a73e4e7cf0U, 0xbdd1aa2fbd8bc6caU, 0xbe2eb87cbd64b9a7U,
  0xbe77c920bc987bc5U, 0x3e2eb87cbd5804acU, 0xbde4b9a73deb1425U, 0xbc987bc5bdfe239dU,
  0xbea203813dcb4fb1U, 0xbe0bc6cabe2530c0U, 0x3d5804ac3ccb4fb1U, 0x3d8bc6cabe5804acU,
  0x3d31e5bb3d856c4cU, 0x3dab8b3d3e08998bU, 0xbd187bc53d856c4cU, 0x3cb1e5bb3dbe9ab6U,
  0xbd187bc5bd987bc5U, 0x3e67e6e63e7e239dU, 0xbcb1e5bbbccb4fb1U, 0x3cfe239d3e823f0dU,
  0xbec9b9123df7c920U, 0x3d716ea23d4b4fb1U, 0xbcfe239d3da530c0U, 0xbcfe239d00000000U,
  0xbcd559fdbe1c342cU, 0xbe90c635bdcdbb59U, 0x3e20037ebe3aaebdU, 0x3d649746bd9864d9U,
  0x3d90c635be686698U, 0xbdaf40c7bdfb7333U, 0x3d461cb43e1c342cU, 0xbcd559fd3da0037eU,
  0xbd5559fd3da0037eU, 0xbd73d48f3d892790U, 0x3c9864d9be49ec06U, 0x3dec35ebbe424d62U,
  0xbe649746be8ede8cU, 0xbdb6df6bbe7b7333U, 0xbde49746bcb6df6bU, 0xbd27a2223e3e7e10U,
  0xbda7a222be85583eU, 0xbe092790bdf3d48fU, 0xbe649746bbf3d48fU, 0x3e2b71753c9864d9U,
  0x3c73d48f3de49746U, 0x3e6c35ebbd27a222U, 0x3d27a222bdbe7e10U, 0xbe0927903e05583eU,
  0xbe77a3e1bd649746U, 0xbe0188ecbe20037eU, 0xbbf3d48fbd90c635U, 0x3d6497463ec8045dU,
  0x3dd559fdbdc61cb4U, 0x3e8370953e23d2d0U, 0xbdf3d48fbe331019U, 0x3d36df6b3e0188ecU,
  0x3d6497463dbe7e10U, 0x3ef1ece6bd461cb4U, 0xbcb6df6b3db6df6bU, 0x3e7b73333e36df6bU,
  0x3e6d171a3f2a6b72U, 0x3d3a646c3f5942dcU, 0x3f002c333f7d2d67U, 0x3f3e38973e8ecd1eU,
  0x3bbe9d403ccc30d0U, 0xc00493ce3fc533e2U, 0x3fa96d8f3f61e00fU, 0x3f1c20d23e372ac6U,
  0x3c06c6723d979f41U, 0x3d6bdb483cca29abU, 0xbdcfc745bd06c672U, 0xbe1d3cdbbcf7167cU,
  0xbc33b3433d77167cU, 0xbda8780f3e0c640cU, 0xbcf7167c3ddb027aU, 0xbd8128d83c9d3cdbU,
  0xbd60a014bd86c672U, 0xbd1201a63ce0a014U, 0x3de0a0143d1d3cdbU, 0xbc60a014be179f41U,
  0x3c9d3cdb3c86c672U, 0xbd9d3cdb3dbeee77U, 0x3d77167c3d6bdb48U, 0xbd9201a6bdbeee77U,
  0xbde0a0143d86c672U, 0xbdb950dd3cf7167cU, 0x3d9201a6bcf7167cU, 0xbda2da75bdfcb416U,
  0x3dd564e03d4a29abU, 0x3dd564e03debdb48U, 0x3e0c640cbdfcb416U, 0xbdc48c113d77167cU,
  0xbc60a0143e09953fU, 0x3c86c672U, 0x3de63daebe2b46dcU, 0xbcb3b3433d5564e0U,
  0x3c60a0143d6bdb48U, 0x3ce0a014be14d073U, 0x3da2da753c86c672U, 0xbdd564e0bd77167cU,
  0xbe2b46dcbe448c11U, 0x3d1201a6bddb027aU, 0x3dfcb4163e0128d8U, 0xbe0f32d9bd8128d8U,
  0x3da2da753c86c672U, 0xbd33b3433dcfc745U, 0xbd6bdb483d33b343U, 0xbd3eee773c06c672U,
  0xbdf7167c00000000U, 0xbe0c640cbd1d3cdbU, 0xbde0a0143d8128d8U, 0xbd33b3433c33b343U,
  0x3ddb027abe690c7bU, 0x3c9d3cdb3e25a942U, 0x3e25a942bc86c672U, 0x3d60a014be0c640cU,
  0x3d3eee77bcf7167cU, 0xbd77167c3e475adeU, 0x3e2e15a9bdb3b343U, 0x3eb24bdc3d77167cU,
  0x3e09953f3d6bdb48U, 0xbc60a014be4fc745U, 0x3d6bdb48bd86c672U, 0xbdb950dd3d9d3cdbU,
  0xbd60a0143e06c672U, 0x3cca29ab3d5564e0U, 0x3e9bd5743e4fc745U, 0xbd1d3cdbbd8128d8U,
  0xbe5296133d8128d8U, 0x3cb3b3433dfcb416U, 0xbe1201a6bdd564e0U, 0x3dae15a9bc86c672U,
  0xbdebdb48be2b46dcU, 0xbe3eee77bdb950ddU, 0x3d28780fbb33b343U, 0xbe09953f3e3eee77U,
  0xbd4a29ab3d3eee77U, 0x3d06c672bbb3b343U, 0x3e03f7a5be7cb416U, 0x3e22da753e03f7a5U,
  0xbd39f4b93daa75a9U, 0x3d2fa004be85029aU, 0xbb254b4f3cb9f4b9U, 0xbe34ca5ebda54b4fU,
  0x3db9f4b93e22b622U, 0xbd95cc403dbf1f13U, 0x3e27e07cbc77f0f6U, 0xbd2fa0043e27e07cU,
  0xbd8122d6bded9c42U, 0xbc254b4fbdd8f2d8U, 0xbce3478d3df7f0f6U, 0xbe4e9e23bdafa004U,
  0xbd95cc40bd064d30U, 0xbdafa0043e8b778bU, 0xbd1af69a3e133712U, 0x3d39f4b93d864d30U,
  0xbe0122d6be375f8cU, 0xbce3478d00000000U, 0xbe18616d3e565daaU, 0x3dfd1b51bd44496eU,
  0x3dbf1f13be88e25dU, 0x3de871e73e95cc40U, 0x3cb9f4b9bcce9e23U, 0x3df2c69c3d864d30U,
  0xbd9af69abd1af69aU, 0xbce3478d3ba54b4fU, 0x3dde1d32be1af69aU, 0xbd39f4b93d064d30U,
  0x3ea400b83c90a1e5U, 0xbda020f53c254b4fU, 0xbe60b25f3d8b778bU, 0xbd39f4b9bcce9e23U,
  0xbcb9f4b9bd44496eU, 0xbe2d0ad7bd064d30U, 0x3e826d6cbdaa75a9U, 0xbe323531bc77f0f6U,
  0x3c4e9e233de871e7U, 0x3cf7f0f63dc4496eU, 0x3d95cc403dbf1f13U, 0xbe0122d6bcb9f4b9U,
  0x3d9af69abdb9f4b9U, 0x3ba54b4fbdb9f4b9U, 0xbe10a1e53e10a1e5U, 0xbe08e25d3d8122d6U,
  0xbd44496ebe34ca5eU, 0xbd254b4f3e2fa004U, 0xbda020f53d10a1e5U, 0xbbf7f0f6be18616dU,
  0xbe5b8805be2a75a9U, 0xbba54b4f3ded9c42U, 0x3e2020f5bdb9f4b9U, 0x3e60b25fbc90a1e5U,
  0xbd1af69a3cf7f0f6U, 0xbe46de9bbda020f5U, 0xbdc973c8bdd8f2d8U, 0x3b254b4f3d4e9e23U,
  0xbe10a1e5bd064d30U, 0x3dd3c87d3c4e9e23U, 0x3e63478dbcb9f4b9U, 0x3d95cc40bd8b778bU,
  0xbd6d9c423e3c89e6U, 0xbe4c08f6bdf7f0f6U, 0xbe0122d6bd254b4fU, 0x3ce3478d3d10a1e5U,
  0xbd95cc403d2fa004U, 0x3dbf1f13be513350U, 0x3d864d30bcce9e23U, 0xbe0b778b3d254b4fU,
  0xbd9af69a3e064d30U, 0x3da54b4fbd63478dU, 0x3cce9e23be10a1e5U, 0xbdf7f0f6bcb9f4b9U,
  0xbda68fe83e084732U, 0x3e1c77ac3d49e4bcU, 0x3e14e57ebe033b14U, 0x3d682d72be3fcc80U,
  0x3e3fcc803dde1536U, 0x3d7245afbd2183caU, 0x3dde1536bd033b14U, 0xbe4c6acc00000000U,
  0xbba183cabd7245afU, 0x3df245af3e2409d9U, 0xbd3fcc80bcb5b443U, 0x3dab9c07bdf751cdU,
  0x3e1c77acbd5e1536U, 0x3de321543e5176eaU, 0x3b2183ca3d0d5351U, 0x3d682d72bda183caU,
  0xbb2183ca3c8d5351U, 0xbc49e4bc3d9c77acU, 0xbdde15363c2183caU, 0x3ded39913ca183caU,
  0x3d884732bdd3fcf9U, 0x3e2b9c07bcf245afU, 0xbe19f19dbba183caU, 0x3de32154bd7c5decU,
  0xbcf245af3cb5b443U, 0x3dd909173df245afU, 0x3dcef0dbbba183caU, 0x3e3fcc803c2183caU,
  0x3e74cbbebc49e4bcU, 0x3dc4d89ebcf245afU, 0x3e30a8253c49e4bcU, 0xbd35b4433b2183caU,
  0xbcde15363c8d5351U, 0x3d3fcc803d35b443U, 0xbd3fcc803e383a52U, 0xbcf245afbbf245afU,
  0xbd2b9c07bdbfcc80U, 0x3d2b9c073e332e34U, 0x3db5b443bd884732U, 0x3d2b9c07bd3fcc80U,
  0xbdc4d89ebd7c5decU, 0xbcc9e4bc3d49e4bcU, 0xbd7c5decbb2183caU, 0x3d033b143c49e4bcU,
  0x3d2183cabcc9e4bcU, 0x3d7245af3cc9e4bcU, 0x3c7245afbd0d5351U, 0x3d176b8dU,
  0xbea040c23c8d5351U, 0x3cf245af3ba183caU, 0xbde82d723e1c77acU, 0xbe0d53513dfc5decU,
  0xbc49e4bcbdf245afU, 0x3d8847323d53fcf9U, 0x3e5909173d884732U, 0x3dbfcc803dbac062U,
  0xbbf245af3df245afU, 0xbd53fcf9bc8d5351U, 0x3b2183ca3cc9e4bcU, 0xbc8d5351bbf245afU,
  0xbca183cabba183caU, 0xbd2183cabd3fcc80U, 0x3e383a5200000000U, 0xbdc4d89ebd8d5351U,
  0xbd833b143e0d5351U, 0x3c2183ca3d2b9c07U, 0x3c49e4bcbd9c77acU, 0x3d8d53513c7245afU,
  0xbd925f6f3db5b443U, 0x3b2183ca3d884732U, 0xbdd909173d35b443U, 0xbe30a8253d925f6fU,
  0xbdfad5ffbd740e7cU, 0x3da2b452bd3dd260U, 0xbc879645bdb70addU, 0x3e843283bd15254cU,
  0xbd8e5dc8bdbdd260U, 0x3c58f06e3cf40e7cU, 0x3d3043593e1f5091U, 0xbdc499e4be47fda5U,
  0x3c8796453bd8f06eU, 0x3db70addbc58f06eU, 0xbb58f06ebcbdd260U, 0x3dfad5ff3c22b452U,
  0xbd0796453d079645U, 0xbd079645bc22b452U, 0xbd15254c3da97bd6U, 0xbc879645be5fb7f1U,
  0xbe043283bd3dd260U, 0x3c22b4523da97bd6U, 0xbe11c18a3d15254cU, 0x3cf40e7cbdd8f06eU,
  0x3da2b452be558cacU, 0x3d8e5dc8bda2b452U, 0xbc22b4523dc499e4U, 0x3dbdd260be304359U,
  0xbdb70addU, 0xbd4b6167bdc499e4U, 0x3d22b452bda97bd6U, 0xbdb70add3d304359U,
  0xbd4b61673d304359U, 0xbd879645bcbdd260U, 0x3d740e7cbcf40e7cU, 0xbe33a71b3dd228ebU,
  0xbcd8f06ebb58f06eU, 0x3ddfb7f1bd079645U, 0x3c58f06ebc879645U, 0xbe6d46f8be1f5091U,
  0x3d879645bc879645U, 0x3d58f06e3cf40e7cU, 0x3e18890d3d3dd260U, 0xbcd8f06e3dfad5ffU,
  0x3d22b4523e3dd260U, 0xbbd8f06e3d22b452U, 0xbddfb7f13d3dd260U, 0xbe5c5430bd304359U,
  0x3d22b452bd4b6167U, 0x3dd228ebbd079645U, 0x3d58f06e3d079645U, 0x3d3043593dbdd260U,
  0xbde67f75be261814U, 0x3dd8f06e3d22b452U, 0xbca2b452be4b6167U, 0x3e6d46f8bded46f8U,
  0xbe58f06e3e1beccfU, 0xbe33a71bbe370addU, 0x3d80cec1be93736bU, 0xbda2b452bed73e8dU,
  0x3da97bd6bb58f06eU, 0x3d80cec1bda97bd6U, 0xbe11c18a3bd8f06eU, 0x3d15254cbdd228ebU,
  0xbc22b452bbd8f06eU, 0x3d4b6167bded46f8U, 0xbe15254c3d4b6167U, 0x3d80cec1bd304359U,
  0x3d58f06e3dcb6167U, 0x3e079645bd667f75U, 0xbd58f06ebd079645U, 0x3d304359bd740e7cU,
  0x3bd8f06ebdb04359U, 0x3c58f06e3d95254cU, 0xbda2b452bd879645U, 0x3e18890dbb58f06eU,
  0xbe09fb13bba9d28eU, 0x3de981833e2c79d8U, 0x3dbf0ce0be272b44U, 0xbe0205353cd44732U,
  0xbe2f21223e741eacU, 0xbdaf2122be173f86U, 0xbb29d28ebba9d28eU, 0xbd5ee45a3dbf0ce0U,
  0xbdd447323d49aa09U, 0xbd7ebbd53de432efU, 0xbd14983c3d94983cU, 0x3ddee45abcbf0ce0U,
  0xbe1f35653dbf0ce0U, 0xbdc9aa09be618ba5U, 0xbdeed0183e544732U, 0xbde432efbdaf2122U,
  0x3d94983c3e3c6596U, 0x3d9f35653d698183U, 0xbcfebbd53d29d28eU, 0x3d09fb133d8f49a8U,
  0xbcfebbd53e09fb13U, 0xbdb9be4b3d346fb7U, 0x3e1c8e1b3e80b190U, 0xbdd995c63dbf0ce0U,
  0x3e0205353ddee45aU, 0x3dfebbd5bde98183U, 0x3cd447323dc45b74U, 0xbd698183bc29d28eU,
  0xbb29d28e3dc9aa09U, 0xbd14983cbdbf0ce0U, 0xbd14983cbe2483faU, 0x3deed018bd1f3565U,
  0xbe5995c6bdfebbd5U, 0xbe76c5f6bd09fb13U, 0x3e796d413dd44732U, 0xbc29d28e3d741eacU,
  0x3d7ebbd5bda9d28eU, 0xbcd447323deed018U, 0xbca9d28e3bfebbd5U, 0xbd8f49a8bddee45aU,
  0x3d99e6d13e91f0f2U, 0xbdb46fb7be29d28eU, 0x3dbf0ce0bddee45aU, 0x3d84ac7f3ce98183U,
  0x3e0753c9bdc45b74U, 0x3d9f3565bc29d28eU, 0x3e445b743d1f3565U, 0x3daf2122be0753c9U,
  0x3e272b443c544732U, 0x3e29d28ebda483faU, 0xbdc45b743e11f0f2U, 0xbe9c8e1b3e445b74U,
  0xbd3f0ce03e5995c6U, 0x3da9d28e3df96d41U, 0xbd3f0ce0bb29d28eU, 0xbc29d28e3c29d28eU,
  0xbe371701bea0890aU, 0xbdd44732bdb46fb7U, 0xbe0205353e796d41U, 0xbe84ac7fbd1f3565U,
  0xbe14983cbea5d79fU, 0x3de432ef3ea87ee9U, 0xbc5447323d1f3565U, 0xbce981833cfebbd5U,
  0x3d8f49a83df96d41U, 0xbd89fb13bdbf0ce0U, 0xbde432ef3deed018U, 0xbdfebbd53d09fb13U,
  0x3ce98183bc29d28eU, 0x3d89fb133d09fb13U, 0x3dfebbd53de432efU, 0x3deed018be020535U,
  0x3d3e2e993c94d68eU, 0x3e0a808bbd0c91bfU, 0xbd467368bd802a88U, 0x3d14d68ebbc67368U,
  0xbd5f41d53d56fd06U, 0xbcd6fd06bd14d68eU, 0xbe5b1f6ebda98294U, 0x3e298294bd4eb837U,
  0xbd14d68ebb844cf0U, 0x3e52da9ebc6786a4U, 0xbd467368bdada4fbU, 0x3df810423cd6fd06U,
  0xbd886f583d35e9caU, 0xbe023bbcbe5f41d5U, 0xbde3643c3d35e9caU, 0x3d56fd063db5e9caU,
  0x3b844cf0bd886f58U, 0x3d5f41d5bcd6fd06U, 0x3e0ea2f3bdb5e9caU, 0x3d94d68e3d9d1b5dU,
  0xbe18f8f63deba90cU, 0xbdb1c7623c6786a4U, 0xbdeba90c3e4eb837U, 0x3da13dc43e657570U,
  0xbc6786a43e023bbcU, 0xbddf41d5be1b0a29U, 0xbdc25100bd2da4fbU, 0xbc4673683e2da4fbU,
  0xbe25602cbd467368U, 0x3d044cf0bd5f41d5U, 0xbd844cf03d844cf0U, 0x3d5f41d5bdd2da9eU,
  0xbd56fd063dd2da9eU, 0x3e023bbcbcd6fd06U, 0xbce786a43c6786a4U, 0xbce786a43de3643cU,
  0xbdada4fbbdd2da9eU, 0xbdeba90cbd35e9caU, 0xbd802a883e16e7c2U, 0x3e6786a43b844cf0U,
  0xbda13dc4bd6fcb73U, 0x3d802a883d467368U, 0xbc25602cbce786a4U, 0xbd802a883db5e9caU,
  0x3c844cf03cc67368U, 0xbcd6fd06bd844cf0U, 0xbd56fd063e14d68eU, 0xbd98f8f63e4ca703U,
  0xbcd6fd063d781042U, 0x3dba0c323d94d68eU, 0xbc94d68e3dada4fbU, 0x3bc673683e4a95d0U,
  0x3c044cf0be5d30a1U, 0x3e3c1d653e065e24U, 0xbdb5e9cabdefcb73U, 0x3d044cf03cd6fd06U,
  0x3c844cf03d6786a4U, 0x3c844cf03b844cf0U, 0x3d6fcb733d56fd06U, 0xbd35e9ca3e1f2c91U,
  0xbc844cf0bdefcb73U, 0x3d7810423cd6fd06U, 0x3cf81042bd886f58U, 0xbe0a808bbda5602cU,
  0xbda982943d0c91bfU, 0x3d8c91bfbcd6fd06U, 0x3d886f583e002a88U, 0xbdf3edda3e31c762U,
  0xbe834456bdbe2e99U, 0x3de786a43dd2da9eU, 0xbe37fafe3e3a0c32U, 0x3e023bbc3e1f2c91U,
  0xbcec840200000000U, 0x3cec8402bd801cd7U, 0xbe99fb47bc1dad57U, 0x3dbb3dd73c89f7acU,
  0x3d001cd7bdddbbc2U, 0xbb1dad57bd6c8402U, 0xbdbb3dd73c89f7acU, 0x3c1dad57bdd3e0edU,
  0x3d09f7ac3d4518adU, 0x3bec8402bd801cd7U, 0xbe402b42bdb6506dU, 0xbd3b3dd7bd801cd7U,
  0xbe0ee5173bec8402U, 0xbd89f7acbd1dad57U, 0xbd316302bdcef382U, 0xbd801cd7bcd8ce58U,
  0xbdbb3dd73da7882cU, 0xbe02938cbd9dad57U, 0x3e3db48d00000000U, 0x3cec8402bd801cd7U,
  0xbcec8402bc6c8402U, 0xbe02938c3b9dad57U, 0x3dbb3dd73cc518adU, 0xbd27882cbe78d58dU,
  0xbd3b3dd7bc9dad57U, 0x3df65ed83c4518adU, 0xbda7882c3d13d282U, 0xbcb163023d09f7acU,
  0x3bec8402bbec8402U, 0xbbec84023dd8ce58U, 0xbde79698bdd8ce58U, 0x3c89f7ac3d001cd7U,
  0xbcec84023c6c8402U, 0xbda29ac2bdddbbc2U, 0xbd4ef382bd27882cU, 0x3d27882cbdcef382U,
  0x3cc518adbc6c8402U, 0xbd09f7acbd93d282U, 0xbdd3e0ed3d850a41U, 0xbc6c8402bdd3e0edU,
  0xbc9dad573d89f7acU, 0xbd13d2823d58ce58U, 0x3de2a92dbd9dad57U, 0xbbec84023cec8402U,
  0xbcb163023d09f7acU, 0xbb1dad57be4c7ccdU, 0x3e115bccbda29ac2U, 0xbe6efab8be9c71fcU,
  0xbd93d282be0780f7U, 0x3e001cd7bc6c8402U, 0x3c1dad573e20240cU, 0x3b9dad573dddbbc2U,
  0x3da29ac2bda7882cU, 0x3e1649373b9dad57U, 0xbe402b42be13d282U, 0x3c9dad573dd8ce58U,
  0xbcb16302be164937U, 0x3da29ac23cc518adU, 0x3d89f7acbd93d282U, 0x3c4518adbc9dad57U,
  0xbb9dad57U, 0x3d9dad57bd4518adU, 0xbde796983da29ac2U, 0x3d1dad573de2a92dU,
  0xbd3b3dd7bdca0617U, 0x3c1dad573df65ed8U, 0x3da29ac2be316302U, 0x3d001cd73c9dad57U,
  0xbd765ed83db16302U, 0x3dca0617be09f7acU, 0x3dcef3823dddbbc2U, 0xbda29ac2be29fee2U,
  0x3c1e67cdbda84e4aU, 0x3dcaf4ff3e2ac7e9U, 0x3dd9ceba3dc601c0U, 0xbe0d14733e00b457U,
  0xbe05a7953b9e67cdU, 0xbd4601c03d778230U, 0x3e1e67cdbd63b537U, 0xbd8f8e123d8f8e12U,
  0xbe0f8e123e2fbb27U, 0xbdf28ef23ded9bb4U, 0xbd284e4a3df78230U, 0xbd9e67cdbc8a9ad3U,
  0xbd4601c0be5261dcU, 0xbe1481503e00b457U, 0x3cd9ceba3e63b537U, 0xbe372805bc9e67cdU,
  0x3d6d9bb43dc601c0U, 0xbcd9ceba3da35b0bU, 0x3b1e67cdbd0a9ad3U, 0xbdcaf4ff3d6d9bb4U,
  0x3c8a9ad3bc8a9ad3U, 0xbd3c1b43bcd9cebaU, 0x3e2d4188bd0a9ad3U, 0xbd3234c7bd00b457U,
  0xbcb234c7bdb72805U, 0x3db72805bde3b537U, 0x3dc601c0bdd4db7bU, 0xbdf782303dfc756fU,
  0xbd63b5373d99748fU, 0x3e3e94e3bd3c1b43U, 0xbd148150bddec1f8U, 0xbe0821343e57551bU,
  0xbe032df6bcb234c7U, 0xbe25d4abbd80b457U, 0x3e1bee2ebd00b457U, 0xbdf78230bd80b457U,
  0xbd6d9bb4be19748fU, 0xbd00b4573e750891U, 0x3e4601c0bbed9bb4U, 0xbd85a7953cb234c7U,
  0xbbed9bb43df78230U, 0xbdb234c7bde8a875U, 0x3d8a9ad3be4d6e9eU, 0x3d948150bced9bb4U,
  0xbd3c1b433d148150U, 0xbdb72805be80b457U, 0x3c1e67cdbced9bb4U, 0x3cd9cebabe410e82U,
  0x3b9e67cd3e20e16cU, 0x3e8a9ad33e0a9ad3U, 0x3e05a7953dfc756fU, 0xbd4fe83dbb9e67cdU,
  0x3db234c73e19748fU, 0x3d63b5373c4601c0U, 0xbc9e67cdbd4fe83dU, 0x3d148150bc8a9ad3U,
  0xbe57551bbd948150U, 0x3c4601c03cb234c7U, 0xbdb234c7bd6d9bb4U, 0xbc4601c0bced9bb4U,
  0xbc4601c0bd1e67cdU, 0x3d1e67cd3e9d2afdU, 0x3dc601c03d284e4aU, 0x3e25d4abbd6d9bb4U,
  0x3e9207b100000000U, 0xbcb234c73e1e67cdU, 0xbe19748fbd4fe83dU, 0x3d4fe83d3d948150U,
  0x3d6d9bb43e1bee2eU, 0xbb9e67cd3cc601c0U, 0xbcc601c000000000U, 0x3d284e4abd00b457U,
  0x3d97111bbd8b7240U, 0x3caa6f323d512b61U, 0xbd97111bbda2aff6U, 0xbb77e78f00000000U,
  0x3dd12b61be05a2d3U, 0xbcc96c24be01c335U, 0x3de48978bdb60e0dU, 0xbd83b304be2a6f32U,
  0xbd1af0b9bc39edabU, 0x3c9af0b93d9af0b9U, 0x3d0b72403d322e6fU, 0xbdb60e0dbdcd4bc2U,
  0x3e5cca3bbd03b304U, 0x3df407f13e5eba0aU, 0x3da68f94bdcd4bc2U, 0x3af7e78fbdc1ace8U,
  0x3dc1ace8bd77e78fU, 0x3d496c243e098271U, 0x3d8b72403d702853U, 0x3cb9edabbaf7e78fU,
  0x3d9ed0583d8f51dfU, 0x3e360e0dbda68f94U, 0x3df7e78fbe0f51dfU, 0x3cc96c243cc96c24U,
  0xbc1af0b93cb9edabU, 0xbcc96c243dd50affU, 0x3dc58c86bde86916U, 0x3dd50aff3cf7e78fU,
  0xbc1af0b9bc1af0b9U, 0xbd60a9da3d0b7240U, 0xbd60a9dabc77e78fU, 0xbdbdcd49U,
  0xbd41ace83d512b61U, 0xbd77e78f3e75f7c0U, 0x3dec48b43d03b304U, 0x3d93317dbd03b304U,
  0x3dfbc72d3da68f94U, 0x3e477c553e01c335U, 0x3d8b72403dd8ea9dU, 0x3d83b3043c1af0b9U,
  0xbdae4ed1U, 0xbb77e78f3d58ea9dU, 0x3dbdcd493db22e6fU, 0x3daa6f323db60e0dU,
  0x3c39edab3e360e0dU, 0x3e03b3043cd8ea9dU, 0xbdf02853bd1af0b9U, 0xbc8b7240U,
  0xbe17111b3d13317dU, 0xbdffa6cb3e15214cU, 0xbcf7e78f3af7e78fU, 0x3ce869163bb9edabU,
  0x3c8b7240bd1af0b9U, 0x3d60a9da3c39edabU, 0x3dd12b613dec48b4U, 0xbcf7e78fbbf7e78fU,
  0x3c58ea9d3d39edabU, 0x3bb9edab3de86916U, 0x3df02853bb77e78fU, 0x3d7028533cc96c24U,
  0x3cf7e78fU, 0xbc8b72403e0f51dfU, 0x3c39edab3d8792a2U, 0xbc1af0b93cc96c24U,
  0xbe15214cbde48978U, 0x3d13317dbdb9edabU, 0xbcd8ea9dbaf7e78fU, 0x3d8f51dfbd13317dU,
  0x3c39edabbcb9edabU, 0xbe303ea03d0b7240U, 0x3da68f94bdb22e6fU, 0x3da68f94bdd8ea9dU,
  0x3d842079bd9a25e2U, 0xbdcbb210be2d6a9fU, 0x3ddc361fU, 0xbd302b4cbc9a25e2U,
  0x3e0420793daaa9f2U, 0x3d8f232e3e176535U, 0x3e1a25e23d94a488U, 0xbd0f232e3de1b779U,
  0xbd3b2e01U, 0xbd51336a3d042079U, 0xbd1a25e23d302b4cU, 0xbde1b779bbb02b4cU,
  0x3d252897be09a1d3U, 0x3d7d3e3d3decba2eU, 0x3c5c361f3e06e126U, 0x3e1ce6903d6738d4U,
  0xbcdc361f3d0f232eU, 0xbd8f232ebd7d3e3dU, 0xbd6738d43e4e72bdU, 0xbde738d43e48f163U,
  0xbdf23b88bde1b779U, 0xbd0420793e042079U, 0x3c5c361f3db5aca6U, 0x3e48f1633de738d4U,
  0xbd0f232ebcc630b6U, 0xbcb02b4cbe3deeaeU, 0x3d0420793c302b4cU, 0x3d9a25e2bdc630b6U,
  0x3cf23b88bbb02b4cU, 0x3cc630b63b302b4cU, 0x3dc0af5b3d89a1d3U, 0x3c9a25e23d5c361fU,
  0x3cb02b4c3e14a488U, 0x3c302b4c3cdc361fU, 0xbdd1336a3e302b4cU, 0x3d51336abd842079U,
  0x3d9a25e2be11e3dbU, 0xbc302b4c3e6cba2eU, 0x3d9a25e2bc302b4cU, 0x3d51336abc9a25e2U,
  0x3d8f232ebd723b88U, 0xbb302b4cbe042079U, 0xbd7d3e3dbd0f232eU, 0xbe27e9443decba2eU,
  0xbcdc361f3d723b88U, 0xbe0c6281be14a488U, 0x3e11e3dbbd0f232eU, 0xbd723b88bda52897U,
  0x3c5c361f3dcbb210U, 0xbc9a25e23c842079U, 0x3d9fa73dbd5c361fU, 0xbd51336a3d0f232eU,
  0xbc842079bdfd3e3dU, 0x3db02b4c3ddc361fU, 0x3d94a4883e1fa73dU, 0xbc302b4cU,
  0x3db5aca63db02b4cU, 0xbd042079bc9a25e2U, 0x3d723b88bcc630b6U, 0xbdfd3e3dbd842079U,
  0xbe48f163bddc361fU, 0xbdaaa9f23d723b88U, 0x3df23b88bd042079U, 0xbd0f232ebd042079U,
  0x3e11e3dbbb302b4cU, 0x3dcbb210be0c6281U, 0x3de1b779beaecaf5U, 0x3e5ef6ccbdecba2eU,
  0x3e015fcc3dd1336aU, 0xbcc630b6be437008U, 0x3e042079be6cba2eU, 0xbe3b2e01be51336aU,
  0xbe609a3c3db8ac53U, 0x3e5b9c7fbd0bc0aeU, 0x3d798eedbe312fb8U, 0x3c6f9373bdbdaa10U,
  0xbe01c534bcdb9c7fU, 0xbc47a58abb1fb7a2U, 0xbe63191abe044412U, 0xbcb3ae963e541fe3U,
  0xbe1ab9e53e15bc28U, 0x3e0bc0aebe0941cfU, 0x3c9fb7a23d6597f9U, 0xbcdb9c7fbd9ab9e5U,
  0xbe4f22263cdb9c7fU, 0xbd5b9c7fbd6f9373U, 0x3db3ae963d90be6bU, 0x3c9fb7a23e0941cfU,
  0x3e362d753e51a105U, 0x3da9b31cbd1fb7a2U, 0xbd51a105be8941cfU, 0x3c47a58abdf49130U,
  0xbe2eb0d9bc47a58aU, 0xbc8bc0aebdea95b6U, 0x3dc7a58abd01c534U, 0x3e6597f9be6597f9U,
  0xbe01c5343d6597f9U, 0xbb9fb7a23e33ae96U, 0xbc9fb7a23db3ae96U, 0xbc47a58a3e133d49U,
  0xbc47a58abc1fb7a2U, 0xbdb3ae963b1fb7a2U, 0xbd15bc283e9e7833U, 0x3b9fb7a2be2eb0d9U,
  0xbc9fb7a2bd6f9373U, 0x3d6f93733e24b55fU, 0xbd9ab9e5bdaeb0d9U, 0x3c1fb7a23dc2a7cdU,
  0xbd90be6b3e0bc0aeU, 0x3c9fb7a23dc7a58aU, 0x3dc2a7cd3d6597f9U, 0x3b9fb7a2bcdb9c7fU,
  0xbc47a58aU, 0xbe4f22263e044412U, 0xbe33ae963bef9373U, 0x3d8bc0ae3d95bc28U,
  0xbe0e3f8c3cb3ae96U, 0xbe133d49bcdb9c7fU, 0xbd798eed3dea95b6U, 0x3cc7a58abe0bc0aeU,
  0x3c9fb7a23e044412U, 0xbe541fe33d33ae96U, 0x3daeb0d9bc6f9373U, 0xbe183b06bcc7a58aU,
  0xbcc7a58abdc2a7cdU, 0xbd47a58abbef9373U, 0x3b9fb7a2bcef9373U, 0x3c47a58abde597f9U,
  0x3c9fb7a2bc9fb7a2U, 0xbc8bc0aebdea95b6U, 0x3d51a1053d86c2f1U, 0xbdea95b63dfe8caaU,
  0xbdfe8caabd33ae96U, 0x3e044412be10be6bU, 0x3b9fb7a2bd33ae96U, 0xbd81c534bcc7a58aU,
  0xbd5b9c7fbc1fb7a2U, 0xbe8583813d81c534U, 0x3d9fb7a23c47a58aU, 0xbdd69ec23c1fb7a2U,
  0xbe983b06bd8bc0aeU, 0xbddb9c7f3d81c534U, 0x3da4b55fbe0e3f8cU, 0xbe77100fbdef9373U,
  0x3bc2b41e3e88e6a5U, 0xbd7361263d736126U, 0xbd9207163db688dcU, 0x3d85dbd53c920716U,
  0xbc736126bd2a5d9aU, 0xbc42b41e00000000U, 0x3dc2b41e3e1b2788U, 0x3df36126bd981cb7U,
  0xbd9e325800000000U, 0xbc920716bd42b41eU, 0xbb42b41ebdf36126U, 0xbe05dbd53e3688dcU,
  0x3bc2b41ebc42b41eU, 0x3c920716bbc2b41eU, 0x3dc2b41e3e213d29U, 0x3e2447f93c120716U,
  0xbde735e43dc8c9bfU, 0xbe0efc46bdb0733bU, 0x3d1e3258bdbc9e7dU, 0xbe0efc46bcc2b41eU,
  0xbe2a5d9abd4edf60U, 0xbd736126bded4b85U, 0xbe120716bded4b85U, 0x3d42b41e3e2a5d9aU,
  0x3e0bf1763e51ea30U, 0xbe4edf60bdc8c9bfU, 0x3d85dbd5bd736126U, 0x3c9207163c736126U,
  0x3e3c9e7dbe3fa94eU, 0x3d85dbd53e705655U, 0xbdc8c9bfbd6735e4U, 0x3dd4f5013caa5d9aU,
  0x3d1207163d920716U, 0xbe30733bbe5b0aa2U, 0x3e5b0aa2be2d686bU, 0xbda447f93e3c9e7dU,
  0x3d736126bdbc9e7dU, 0xbd4edf60bdb0733bU, 0xbd3688dcbdc2b41eU, 0xbe0bf17600000000U,
  0xbd9e3258bd5b0aa2U, 0xbe30733bbe2447f9U, 0x3de120433dc2b41eU, 0xbe08e6a53d120716U,
  0x3c120716bd8bf176U, 0xbdc8c9bfbe08e6a5U, 0xbddb0aa2be181cb7U, 0xbc42b41e3daa5d9aU,
  0x3bc2b41e3dff8c67U, 0xbd5b0aa2bddb0aa2U, 0xbe3688dc3db0733bU, 0xbe02d104be48c9bfU,
  0xbd1e3258be1511e7U, 0x3d4edf603d736126U, 0x3dbc9e7d3c736126U, 0xbb42b41e3d120716U,
  0x3e4bd48f3e87613dU, 0x3ec12eb6bd6735e4U, 0xbe8a6c0dbdbc9e7dU, 0xbcf36126bda447f9U,
  0x3d42b41e3d9e3258U, 0xbd3688dcbe337e0cU, 0x3dc8c9bfbe213d29U, 0xbe57ffd1be0efc46U,
  0x3dc8c9bf3c920716U, 0x3eb50374bd736126U, 0xbdb688dc3d85dbd5U, 0xbe3fa94ebe6735e4U,
  0xbd1207163e5e1572U, 0xbdcedf603e05dbd5U, 0xbe8bf176be3688dcU, 0xbd6735e43df976c6U,
  0xbe83fb603e68b47aU, 0xbcfa122f3d26b6caU, 0x3d91dff13db49b5bU, 0x3d18d2393dd0647cU,
  0xbd50647c3bde490dU, 0xbc26b6cabbde490dU, 0x3d8aeda8be03fb60U, 0x3e1fc4813d26b6caU,
  0xbdde490d3d26b6caU, 0xbe5756c53d7a122fU, 0x3da6b6ca3dd0647cU, 0xbdf31fe63d98d239U,
  0xbe2da912bd18d239U, 0xbe03fb603d91dff1U, 0x3e38147fbe18d239U, 0x3cde490d3dc27febU,
  0xbe0aeda8bdf31fe6U, 0xbde53b55bd7a122fU, 0x3d427feb3dfa122fU, 0x3cfa122fbd349b5bU,
  0xbe61c231bdd756c5U, 0x3c5e490d3c5e490dU, 0x3e03fb60be3f06c7U, 0x3e11dff13d9fc481U,
  0x3d26b6cabde53b55U, 0x3e0e66cc3c5e490dU, 0xbe312236be03fb60U, 0x3d7a122f3ea33da6U,
  0xbdec2d9eU, 0xbd427feb3d83fb60U, 0xbe653b553d5e490dU, 0x3de53b55bcc27febU,
  0xbe349b5bbd26b6caU, 0xbcde490d00000000U, 0x3dbb8da3be03fb60U, 0x3d5e490dbcc27febU,
  0xbd18d2393e45f910U, 0xbe1fc481bc26b6caU, 0xbe0e66cc3df31fe6U, 0xbe50647c3e68b47aU,
  0xbe8774843d349b5bU, 0x3e03fb60bcfa122fU, 0xbd50647cbd83fb60U, 0xbdde490d3d7a122fU,
  0xbe1559153ca6b6caU, 0x3db49b5b3d50647cU, 0x3dec2d9e3dc27febU, 0xbb5e490d3d26b6caU,
  0x3dde490d3db49b5bU, 0xbcfa122f3d0aeda8U, 0xbdada912be00823cU, 0x3e00823cbdd0647cU,
  0xbdbb8da33c26b6caU, 0xbe9c4b5dbdf31fe6U, 0xbd7a122fbe83fb60U, 0xbe18d239bdfa122fU,
  0xbd349b5b00000000U, 0x3cfa122f3dfa122fU, 0x3e5acfe9bedc8c7bU, 0x3e0aeda8bd83fb60U,
  0x3e50647c3cc27febU, 0xbec5f910bdbb8da3U, 0xbe312236bdc27febU, 0x3c8aeda83d8aeda8U,
  0xbca6b6ca3dec2d9eU, 0x3d8aeda83dd756c5U, 0x3e9715a7bdfa122fU, 0x3d0aeda8bd83fb60U,
  0x3e349b5b3e497234U, 0xbd7a122fbd26b6caU, 0xbdc27febbc5e490dU, 0xbe11dff13dd0647cU,
  0xbc671d02bde155e2U, 0xbdbeab223da78ea2U, 0x3dca3962bc0aab02U, 0x3e163942bddb8ec2U,
  0x3e3eab22bb38e402U, 0xbce71d02bd8aab02U, 0xbdb31ce2bb38e402U, 0xbdc47242bdbeab22U,
  0x3d671d023c8aab02U, 0xbd9c00623dbeab22U, 0xbde71d023c38e402U, 0x3dca3962bd2d55c2U,
  0x3d500082bda78ea2U, 0xbdfe3983bcb8e402U, 0xbd9c00623d447242U, 0xbdad55c2bd8aab02U,
  0xbda78ea2bdc47242U, 0xbb38e402bb38e402U, 0x3d7e3983bcb8e402U, 0x3e0200513cd00082U,
  0x3d2d55c23db8e402U, 0xbe1c0062be500082U, 0x3e2a72323dbeab22U, 0xbd9072223c8aab02U,
  0xbd38e402bd7e3983U, 0xbe2d55c23bb8e402U, 0xbddb8ec2bbb8e402U, 0x3c671d02bd5b8ec2U,
  0xbe21c782be0aab02U, 0x3ca1c782bce71d02U, 0xbd447242bdd00082U, 0x3e1ee3f200000000U,
  0xbda1c7823d447242U, 0x3da1c782bdf2ab43U, 0xbdece423bd84e3e1U, 0xbce71d023d963942U,
  0xbcd00082be1355b2U, 0xbc671d023db8e402U, 0x3d907222bdb8e402U, 0x3e191cd2be4a3962U,
  0x3c671d0200000000U, 0x3e1355b2bd2d55c2U, 0x3b38e402bcd00082U, 0x3d72ab433dbeab22U,
  0x3d84e3e13d38e402U, 0x3cb8e4023d2d55c2U, 0xbd671d02bcd00082U, 0xbd4472423d447242U,
  0x3ca1c782bd9c0062U, 0xbdb8e402be91e3eaU, 0xbcfe39833df2ab43U, 0xbeb7723a3ce71d02U,
  0xbe163942be07c771U, 0x3d2d55c2bd447242U, 0x3e1639423d907222U, 0xbcd000823d84e3e1U,
  0x3bb8e4023df2ab43U, 0xbd9c0062bce71d02U, 0xbca1c782be04e3e1U, 0xbdb31ce2bd500082U,
  0x3c38e402bde71d02U, 0xbd671d023cb8e402U, 0x3c8aab023d963942U, 0x3c38e402bd447242U,
  0xbcb8e4023de155e2U, 0x3dd00082bdd00082U, 0xbd671d023cfe3983U, 0xbdca39623ce71d02U,
  0x3bb8e4023e0d8e92U, 0xbd7e3983bdad55c2U, 0xbde71d023d963942U, 0x3d1639423d163942U,
  0xbcf515403d5b48e9U, 0xbda13d243dcb2932U, 0x3c682f153cc17c91U, 0x3d0770ccbbce62bdU,
  0xbdc7efa7bace62bdU, 0x3c682f15bc9aca0eU, 0xbd00fdb63db7cff0U, 0x3d751540be36332bU,
  0x3ce82f15bc9aca0eU, 0x3cce62bd3c349665U, 0x3d349665be261374U, 0x3cb49665bd4e62bdU,
  0xbc9aca0e3cf51540U, 0xbd9aca0ebce82f15U, 0xbd1456f8bd9456f8U, 0xbb4e62bdbdaae9c5U,
  0xbc9aca0ebca7b03aU, 0xbdc17c91bc1aca0eU, 0x3e4cc5f83dde8274U, 0x3d6ea22b3c349665U,
  0x3d47efa73d8aaa57U, 0xbd0de3e2bd8de3e2U, 0xbcf515403db15cdaU, 0xbd47efa7bd3b097bU,
  0xbd8de3e23d751540U, 0xbd0770ccbd1456f8U, 0xbd2e234f3e2fc015U, 0x3bce62bd3daae9c5U,
  0xbdf84ecbbe192d48U, 0x3d751540U, 0x3da476af3c80fdb6U, 0x3e192d483cce62bdU,
  0x3d417c913dce62bdU, 0x3c8de3e2bd9456f8U, 0xbd8aaa57bcb49665U, 0x3cf51540bc8de3e2U,
  0xbe1790833d47efa7U, 0x3de82f15bd5b48e9U, 0x3daae9c53d843741U, 0xbc4e62bdbce82f15U,
  0xbcce62bdbc8de3e2U, 0x3dd19c48bda13d24U, 0x3cce62bd3dcb2932U, 0xbb4e62bd3e111d6dU,
  0xbe12ba323d8770ccU, 0x3ddb48e93e22d9e9U, 0xbd5b48e93d3b097bU, 0x3d4e62bd3e3fdfccU,
  0x3dd80f5e3d54d5d3U, 0x3cdb48e93ce82f15U, 0xbd8770cc3d1aca0eU, 0x3e3ca6413d9aca0eU,
  0x3d843741bd1456f8U, 0x3d3496653e2e234fU, 0x3d9790833cdb48e9U, 0x3deb68a03cb49665U,
  0x3e36332bbdd4d5d3U, 0x3d417c91bb9aca0eU, 0x3e22d9e93d27b03aU, 0x3de4f58a3e0aaa57U,
  0x3d54d5d33d80fdb6U, 0xbd0de3e23d27b03aU, 0xbd7b8856bd8aaa57U, 0xbe111d6dbd5b48e9U,
  0x3d751540bd54d5d3U, 0x3c1aca0ebd47efa7U, 0x3e0770cc3cdb48e9U, 0xbc80fdb63daae9c5U,
  0x3d417c91be00fdb6U, 0x3d61bbff3e15f3bdU, 0xbde1bbff3e0c471cU, 0x3e090d923d8de3e2U,
  0x3e0bb091bc2bed01U, 0x3e00f1c13e098a67U, 0xbddb34943bce4f9aU, 0x3da7a0ae3da3545aU,
  0x3dc16aa13d898a67U, 0x3dce4f9abcbd1e4eU, 0x3c2bed01bc2bed01U, 0xbdc16aa1bdec65e1U,
  0xbd9f0807bd68198eU, 0xbc898a673d3485a7U, 0xbe27a0ae3e29c6d7U, 0x3e098a673cdf80e7U,
  0x3e3af824bd23545aU, 0x3b098a673e61a711U, 0xbd70b234be00f1c1U, 0xbd92230dbd8dd6baU,
  0xbcabed013d80f1c1U, 0xbc4e4f9abc70b234U, 0xbd853e14bdabed01U, 0xbd898a673e36abd1U,
  0x3e166f61bb098a67U, 0x3d68198e3cabed01U, 0xbc4e4f9abdec65e1U, 0x3d5f80e7bd45b6f4U,
  0xbe0bb091bd70b234U, 0xbc898a67bcce4f9aU, 0x3dc5b6f4bddf80e7U, 0x3e098a67bddf80e7U,
  0xbd23545a3d098a67U, 0xbd9f08073dd6e841U, 0x3c898a673cf0b234U, 0xbd45b6f43d68198eU,
  0xbd9f0807bddb3494U, 0x3c70b2343d5f80e7U, 0xbd4e4f9abdd29beeU, 0x3db039543d4e4f9aU,
  0x3d70b234be887752U, 0xbe1449373db485a7U, 0x3e053e143e053e14U, 0xbdabed01bcdf80e7U,
  0x3d68198ebe3f4477U, 0x3d898a67bd1abbb4U, 0xbdec65e1bdc16aa1U, 0x3d8dd6babdd29beeU,
  0x3b098a67bbce4f9aU, 0xbe6e8c0bbe18958aU, 0xbd92230d3df4fe87U, 0x3ddb3494bd12230dU,
  0x3db485a7bb098a67U, 0xbdb039543b098a67U, 0x3d68198ebda3545aU, 0x3d9abbb4be0317eaU,
  0xbd898a67bddf80e7U, 0xbde8198ebb898a67U, 0x3d3d1e4ebd3d1e4eU, 0xbe4a0347bc9abbb4U,
  0xbcbd1e4e3e053e14U, 0xbc70b2343d4e4f9aU, 0x3cf0b2343c4e4f9aU, 0xbd2bed01bc098a67U,
  0xbd9f0807bde3cd3bU, 0x3c898a67bdf4fe87U, 0x3d68198e3d5f80e7U, 0xbe166f61bc898a67U,
  0xbd00f1c1be053e14U, 0xbda3545a3d853e14U, 0xbdb03954bc70b234U, 0xbe212e3100000000U,
  0xbd853e14be6a3fb7U, 0xbd92230d3d853e14U, 0x3c898a673c4e4f9aU, 0xbd45b6f43d00f1c1U,
  0xbdcd4911be19f6cdU, 0x3d7657aebc5af89bU, 0x3def7fea3d31e9feU, 0x3d31e9febd968aebU,
  0x3d68a8253d9d62afU, 0xbe27a6573dcd4911U, 0x3ea43a74be0c4743U, 0xbdd420d6bbdaf89bU,
  0x3ca43a74bd7657aeU, 0x3b5af89b3ca43a74U, 0xbd31e9fe3e61d060U, 0x3c243a743de1d060U,
  0x3d968aeb3d168aebU, 0x3d968aeb3e19f6cdU, 0x3e8fb326bc88db61U, 0x3d08db61bd243a74U,
  0xbe19f6cdbd4d4911U, 0x3d68a8253d08db61U, 0x3d4d4911bd168aebU, 0x3d3f9988be46714cU,
  0x3b5af89b3ddaf89bU, 0xbe43056a3e131f08U, 0x3e4d49113d8fb326U, 0xbd82039cbd68a825U,
  0xbec6714cbdbf9988U, 0x3cdaf89bbdb1e9feU, 0x3e056f7ebcbf9988U, 0x3d08db613cbf9988U,
  0x3b5af89b3d31e9feU, 0x3c5af89bbdf657aeU, 0xbc5af89bbd88db61U, 0xbe68a8253de8a825U,
  0xbcf657ae3db8c1c3U, 0xbcf657aebde8a825U, 0x3d4d4911bdc6714cU, 0x3d3f99883d68a825U,
  0xbcbf99883b5af89bU, 0xbc243a74be131f08U, 0x3e5af89bbd5af89bU, 0x3ddaf89bbe08db61U,
  0x3e20ce923def7feaU, 0x3e5af89bbbdaf89bU, 0xbe31e9febe931f08U, 0x3dcd4911bde8a825U,
  0xbe08db61bc243a74U, 0xbe131f08bddaf89bU, 0xbe49dd2fbdfd2f73U, 0x3e0fb3263d08db61U,
  0xbe0fb326bdef7feaU, 0x3e243a74be43056aU, 0x3db1e9fe3dd420d6U, 0x3d3f99883d168aebU,
  0x3e243a743e0c4743U, 0xbd5af89b3dcd4911U, 0xbe1d62af3e578cb9U, 0xbe653c423c243a74U,
  0xbdb1e9febe056f7eU, 0x3da43a74bcf657aeU, 0xbde1d060be0c4743U, 0x3e6f7fea3d82039cU,
  0xbd5af89b3d9d62afU, 0x3e168aebbd31e9feU, 0x3d3f9988bd3f9988U, 0x3d08db61bddaf89bU,
  0x3e8fb326bd31e9feU, 0xbc88db613d968aebU, 0xbe7657ae3d31e9feU, 0x3e3f99883d968aebU,
  0xbdef7feabdf657aeU, 0xbe5af89bbe02039cU, 0xbed942aa3e19f6cdU, 0xbe79c391be5af89bU,
  0xbd3a2aa43d8b9ffbU, 0xbd6f5b66bd54c305U, 0xbd98ec2c3e1c3f38U, 0xbcef5b663e04f9e3U,
  0xbcd4c305bdb3848cU, 0xbc54c3053e5ebc29U, 0x3e3031803e9f9244U, 0x3d124613bcd4c305U,
  0x3e22e5503c84f9e3U, 0x3d3a2aa43de8b54dU, 0x3da6385cbde8b54dU, 0xbdce1ced3e01a6d7U,
  0xbb54c3053d124613U, 0xbd9f92443d924613U, 0x3e2cde743e18ec2cU, 0xbddb691dbe1f9244U,
  0x3e5816113dba2aa4U, 0xbdacde74bbd4c305U, 0xbde20f35be581611U, 0xbdc0d0bdbe01a6d7U,
  0x3dce1cedbc54c305U, 0xbd124613be516ff9U, 0xbddb691dbe8ef307U, 0xbe89f675be4776d5U,
  0xbd2cde743bd4c305U, 0xbe98ec2c3cd4c305U, 0x3e4ac9e13bd4c305U, 0xbe7ca7963e4ac9e1U,
  0xbd620f353db3848cU, 0x3d8b9ffbbddb691dU, 0x3d54c305be0b9ffbU, 0xbe36d7983d2cde74U,
  0xbe0b9ffb3dc0d0bdU, 0x3e1f92443d3a2aa4U, 0xbd6f5b66be6c085aU, 0x3e9a95b23c1f9244U,
  0xbdfca7963d6f5b66U, 0xbe22e550be084cefU, 0xbd620f35be656241U, 0xbeb3848cbd2cde74U,
  0xbdba2aa43bd4c305U, 0x3de8b54d3e159920U, 0xbd9f92443e36d798U, 0x3e36d798bc9f9244U,
  0x3dce1cedbdef5b66U, 0xbd8b9ffb3e26385cU, 0xbebd7db0bdef5b66U, 0x3d9f9244U,
  0xbc9f92443c1f9244U, 0x3d9f9244bd124613U, 0x3e6c085abd3a2aa4U, 0x3e2cde743def5b66U,
  0xbe36d7983de8b54dU, 0xbde20f35bb54c305U, 0xbd3a2aa43d84f9e3U, 0xbe084cefbe124613U,
  0xbdb3848c3e3d7db0U, 0x3de20f353d8b9ffbU, 0xbdc0d0bd00000000U, 0x3e68b54dbddb691dU,
  0x3de8b54d3d8b9ffbU, 0xbdc776d53bd4c305U, 0xbe22e5503dba2aa4U, 0x3d3a2aa4bcba2aa4U,
  0xbd7ca7963def5b66U, 0xbd04f9e3bc1f9244U, 0xbdef5b663dd4c305U, 0xbed3197fbde20f35U,
  0x3cef5b66be26385cU, 0x3d4776d5bd6f5b66U, 0xbda6385c3d4776d5U, 0x3ea6385c3db3848cU,
  0x3d3c0949bc966dd4U, 0x3defbf0abe1fd4b1U, 0x3d9b21433d4ed704U, 0x3d6b0b9b3da93b8eU,
  0x3c61a4be3d966dd4U, 0x3cf472783e34fc23U, 0xbd966dd4bde1a4beU, 0xbd3c0949be11ba65U,
  0x3ce1a4be3e1fd4b1U, 0xbe05f9d1bcbc0949U, 0xbc3c09493e2deefdU, 0xbc3c09493e293b8eU,
  0xbc61a4bebdefbf0aU, 0xbd4570263e11ba65U, 0x3e9540f8bc166dd4U, 0xbc83a01abe39af92U,
  0x3e5f4b073db2a26cU, 0x3be1a4be3e014662U, 0x3d0d06f7bd0d06f7U, 0x3e03a01abd166dd4U,
  0xbd1fd4b13dc57026U, 0x3e43166fbce1a4beU, 0xbd885388bdeb0b9bU, 0xbe0d06f7bd966dd4U,
  0xbd166dd43dbc0949U, 0x3d83a01abc166dd4U, 0xbd1fd4b100000000U, 0xbdc0bcb8bd0d06f7U,
  0xbd32a26c3dadeefdU, 0x3d747278bce1a4beU, 0x3db755da3d3c0949U, 0xbdc570263d83a01aU,
  0x3c966dd43da93b8eU, 0x3d32a26cbd747278U, 0xbc61a4be3e03a01aU, 0xbd293b8e3cbc0949U,
  0x3d457026bdbc0949U, 0xbd293b8e3d3c0949U, 0x3e40bcb83e5130bbU, 0xbddcf14f3de1a4beU,
  0x3d91ba653d885388U, 0xbd91ba653deb0b9bU, 0x3b166dd43d83a01aU, 0x3dced7043c83a01aU,
  0x3d293b8ebbe1a4beU, 0x3c61a4bebc61a4beU, 0x3d6b0b9b3dadeefdU, 0xbe1fd4b13db2a26cU,
  0x3d9b21433d91ba65U, 0xbd4ed704bdfdd956U, 0x3cbc094900000000U, 0xbe11ba65bd6b0b9bU,
  0x3e11ba653ddcf14fU, 0x3d32a26c00000000U, 0x3d03a01abb966dd4U, 0xbdca2395bbe1a4beU,
  0xbd583de13c61a4beU, 0x3de6582dbe40bcb8U, 0x3d4570263d0d06f7U, 0xbe248820bd8d06f7U,
  0x3da93b8ebd32a26cU, 0xbc166dd4bd03a01aU, 0x3e55e4293c83a01aU, 0x3c166dd43d6b0b9bU,
  0x3d03a01abcbc0949U, 0x3d6b0b9bbda48820U, 0x3defbf0abda93b8eU, 0xbdc0bcb8bbe1a4beU,
  0xbcf472783dced704U, 0x3d0d06f73b166dd4U, 0xbda48820bd0d06f7U, 0x3deb0b9b3e7218c1U,
  0x3e26149b3d9578f2U, 0xbcc74beebd474beeU, 0x3c31270c3e1578f2U, 0xbd8fefba3c9b022aU,
  0xbcf395b0bcc74beeU, 0x3b31270c3b31270cU, 0x3d474beebd5d70cfU, 0x3da08b63be2b9dd4U,
  0x3c5d70cf3d8a6681U, 0x3d525e5ebdf395b0U, 0xbd1b022abc31270cU, 0xbda08b633b31270cU,
  0x3d04dd493d474beeU, 0xbd8a66813e0d2b1eU, 0x3c5d70cfbd474beeU, 0xbd9578f2bcdd70cfU,
  0xbd84dd493cb1270cU, 0xbd31270cbe5aac33U, 0x3dc74beebd1b022aU, 0xbc9b022a3d26149bU,
  0xbd84dd493dccd526U, 0xbe62fa0700000000U, 0x3df91ee9bd8fefbaU, 0xbe8218adbd84dd49U,
  0xbb31270c3c5d70cfU, 0x3c84dd493cc74beeU, 0xbc04dd493d31270cU, 0xbcc74beebc31270cU,
  0xbde883403c9b022aU, 0xbcc74bee3c04dd49U, 0xbcb1270cbdb6b044U, 0xbc5d70cf3d8fefbaU,
  0x3cb1270c3d9b022aU, 0x3dbc397dbd7395b0U, 0x3e31270cbcc74beeU, 0x3dab9dd4bdb1270cU,
  0xbd7395b0bcdd70cfU, 0xbe183d8ebd474beeU, 0x3c04dd493cdd70cfU, 0xbe92b4563d0fefbaU,
  0xbc5d70cfbd474beeU, 0x3d31270c3dd7e797U, 0x3d7395b0be448751U, 0x3ea1edb1bd84dd49U,
  0xbcc74bee3e3c397dU, 0xbddd70cfbe62fa07U, 0xbe12b4563c84dd49U, 0xbeafc4bebd04dd49U,
  0xbde88340bd7395b0U, 0xbb31270cbd84dd49U, 0xbd474bee3dccd526U, 0xbbb1270cbd04dd49U,
  0xbc31270c3d31270cU, 0x3df395b03d525e5eU, 0x3d8a66813da6149bU, 0x3d8a66813db6b044U,
  0xbdfea8213d84dd49U, 0x3c31270c3e04dd49U, 0x3c31270c3d474beeU, 0x3df395b0bd8fefbaU,
  0xbc9b022abd31270cU, 0x3cf395b03d474beeU, 0xbd474bee3e183d8eU, 0xbddd70cf3e0218adU,
  0xbd0fefba3e1dc6c7U, 0x3d84dd493de88340U, 0x3cdd70cfbda6149bU, 0x3e12b456bd3c397dU,
  0xbd04dd493cf395b0U, 0xbe1578f23dd25e5eU, 0xbb31270c3df395b0U, 0xbd1b022abd8a6681U,
  0xbd43b25a3d56559fU, 0xbb951a2c3d310f14U, 0xbd90715b3d56559fU, 0xbd43b25abdbf0988U,
  0x3dba60b7be12c5c3U, 0xbca7bd723bdfa742U, 0x3e2a11da3e097421U, 0xbd5fa742bd0276e6U,
  0xbd5fa742bdf24a88U, 0x3d90715bbdc85b2bU, 0xbdd6559f3dba60b7U, 0x3d0bc8893d8bc889U,
  0x3e380c4e3e071fb8U, 0x3d151a2cbcba60b7U, 0x3d1e6bcf3e12c5c3U, 0xbe2314a0bdcd03fcU,
  0x3dac6643bd724a88U, 0x3bdfa7423d90715bU, 0x3c151a2cbcdfa742U, 0xbda7bd723d68f8e5U,
  0x3d724a883c151a2cU, 0xbd8276e6bd90715bU, 0x3d4d03fc3d7b9c2aU, 0xbd99c2fdbbdfa742U,
  0x3ddfa7423d8bc889U, 0xbd0bc8893d7b9c2aU, 0x3ddafe71bd0bc889U, 0x3bdfa742bddfa742U,
  0x3ccd03fcbca7bd72U, 0x3d27bd72bd310f14U, 0x3e12c5c3be0e1cf2U, 0xbddfa742bdfb9c2aU,
  0xbe176e95bd68f8e5U, 0x3d43b25a3d7b9c2aU, 0x3dcd03fcbd0bc889U, 0xbd68f8e5bd27bd72U,
  0xbb951a2c3d68f8e5U, 0x3e51accebe00227eU, 0x3dcd03fcbd871fb8U, 0xbdfb9c2a3d7b9c2aU,
  0xbe919b8fbd43b25aU, 0x3bdfa742U, 0x3dd1acce3d99c2fdU, 0xbcdfa7423b151a2cU,
  0x3b951a2c3e35b7e6U, 0x3d3a60b7bdc3b25aU, 0x3e256909bdd1acceU, 0xbe071fb83d0bc889U,
  0x3df24a88be4606c2U, 0xbdeda1b63cf24a88U, 0x3de8f8e53d7b9c2aU, 0x3c8276e63dba60b7U,
  0xbbdfa742bbdfa742U, 0x3e415df13d0276e6U, 0xbe256909bdb10f14U, 0xbda7bd72be10715bU,
  0x3e93eff83dbf0988U, 0x3e2a11dabd56559fU, 0xbd151a2cbda314a0U, 0x3e5d52d93d56559fU,
  0xbb151a2cbe097421U, 0x3e2a11dabd724a88U, 0xbe645013bdd6559fU, 0x3d1e6bcfbd3a60b7U,
  0x3ddfa7423d5fa742U, 0x3de450133e2ebaacU, 0x3c951a2c3e6da1b6U, 0x3ca7bd723dc85b2bU,
  0x3c5fa7423d68f8e5U, 0x3e80227e3e415df1U, 0xbd8276e6bd5fa742U, 0xbe2ebaac3d8bc889U,
  0xbd2e819c3e405a81U, 0xbdb278ebbd6df68fU, 0x3d4e3c16bdf9dc7dU, 0x3da692febd96b5c1U,
  0x3d75e52ebd2692feU, 0xbd86d8843e386be2U, 0x3e0acfd43e3e5ed9U, 0x3d3e5ed9bd36703bU,
  0xbc1ea4603e347493U, 0xbd562ab4be18b169U, 0xbd3e5ed9be2e819cU, 0x3d0ec7233d1ea460U,
  0x3cce3c163c9ea460U, 0xbd8acfd43bfdd3ccU, 0x3df5e52e3bbe5ed9U, 0xbbfdd3ccbdb6703bU,
  0xbd6607f13d7dd3ccU, 0x3db278ebbc1ea460U, 0xbd2692febbfdd3ccU, 0x3d8ec7233c5e1952U,
  0xbe1ca8b83dce3c16U, 0xbc9ea460bd9ea460U, 0x3d86d884bd9ea460U, 0x3cde19523e5037bdU,
  0xbdaa8a4dbd1ea460U, 0xbd92be72bdd62ab4U, 0xbd5e19523d464d77U, 0x3d6df68f3d92be72U,
  0xbd562ab4be3a678aU, 0xbd4e3c163e1ca8b8U, 0x3c1ea460bc1ea460U, 0x3e0acfd43e0ccb7bU,
  0x3e10c2ca3e4c406eU, 0x3cce3c16bcce3c16U, 0x3d562ab4bdf5e52eU, 0x3da29bafbd8ec723U,
  0x3cde19523c7dd3ccU, 0xbd3e5ed9bdf9dc7dU, 0x3cce3c16bdca44c7U, 0x3bbe5ed93dca44c7U,
  0xbd16b5c13e00e58eU, 0x3e3278eb3c8ec723U, 0x3d36703b3e7bd824U, 0x3c8ec723bd6df68fU,
  0x3afdd3cc3e0acfd4U, 0xbcde19523e2a8a4dU, 0xbe0acfd4bd2e819cU, 0x3d2e819c3df5e52eU,
  0x3cce3c16bd562ab4U, 0xbb7dd3cc3cedf68fU, 0xbd96b5c1bd8acfd4U, 0x3e229bafbbfdd3ccU,
  0xbc5e19523d7dd3ccU, 0xbd4e3c163da29bafU, 0xbd2e819c3d2e819cU, 0x3e58265c3dda2203U,
  0x3da29baf3d92be72U, 0x3de210a200000000U, 0xbd0ec723be12be72U, 0x3dca44c7bd75e52eU,
  0x3c1ea4603e6bfae8U, 0xbdf5e52ebe1ca8b8U, 0xbe36703bbe00e58eU, 0xbbfdd3ccbdda2203U,
  0xbd3e5ed9bbfdd3ccU, 0x3e10c2ca3c5e1952U, 0x3d464d77bc9ea460U, 0x3cedf68f3da29bafU,
  0x3e14ba1a3b7dd3ccU, 0xbdc64d773d4e3c16U, 0xbd82e135bc7dd3ccU, 0x3c8ec723bcbe5ed9U,
  0xbdbbf050bdb24d04U, 0xbd70f274bd821c86U, 0xbcad7b5e3e0e28a6U, 0x3d06ee2c3dd8da35U,
  0xbcc0c1f6bdcf36e9U, 0xbe048559bc1a34c5U, 0xbdcf36e93e34b5d7U, 0xbd95631f3e23d811U,
  0x3b9a34c53dd8da35U, 0x3e0bbfd3bd54088fU, 0xbc1a34c5bd40c1f6U, 0x3e45939c3c86ee2cU,
  0xbe70f2743d9f066bU, 0x3dc0c1f6be2640e4U, 0xbe45939c3e99005bU, 0xbe5dabdb3d06ee2cU,
  0xbc40c1f63dec20ceU, 0xbc674f283ce74f28U, 0xbdc0c1f63d109179U, 0x3c1a34c5be23d811U,
  0xbe15631fbe848559U, 0xbd86ee2cbd70f274U, 0xbdad7b5e3e909179U, 0x3c86ee2cbe5dabdbU,
  0xbb9a34c53d371eaaU, 0xbdd8da35bd821c86U, 0xbd821c863db71eaaU, 0xbdb71eaabc674f28U,
  0xbdb24d043c40c1f6U, 0x3cc0c1f63de27d81U, 0x3de27d813da3d811U, 0xbd23d8113e54088fU,
  0x3e85b9c33ce74f28U, 0xbe048559be54088fU, 0xbd06ee2cbdc0c1f6U, 0xbe1c9d98be4f36e9U,
  0xbd86ee2c3d40c1f6U, 0xbde27d813dbbf050U, 0x3c1a34c53d821c86U, 0xbd7a95c03d909179U,
  0x3e06ee2c3dad7b5eU, 0xbde27d813d54088fU, 0x3cd4088fbdbbf050U, 0xbdad7b5ebe6014aeU,
  0xbde27d813d06ee2cU, 0xbb1a34c53d821c86U, 0x3de27d813cfa95c0U, 0xbd909179be1a34c5U,
  0x3dc0c1f6be0bbfd3U, 0x3dfa95c03d1a34c5U, 0xbce74f28bc40c1f6U, 0xbe0bbfd33d109179U,
  0xbcfa95c0bc9a34c5U, 0x3c1a34c53d9f066bU, 0x3c1a34c5be0e28a6U, 0x3df5c41a3b9a34c5U,
  0xbde27d81be3bf050U, 0x3e47fc6fbc86ee2cU, 0xbdd8da353dcf36e9U, 0xbd674f283e12fa4cU,
  0xbe17cbf2bbe74f28U, 0x3d40c1f63e109179U, 0x3b1a34c5be021c86U, 0x3e58da35bc9a34c5U,
  0xbd4a6543bdbbf050U, 0xbd371eaabd8bbfd3U, 0x3c674f28bcad7b5eU, 0xbd40c1f6bd06ee2cU,
  0xbe567162bb1a34c5U, 0xbdec20ce3c1a34c5U, 0xbe23d811be58da35U, 0x3d1a34c5be969788U,
  0xbdd38a853e0034ecU, 0x3d93700fbdb9e656U, 0xbce6c5a8bd404f61U, 0x3d93700f3db37d4aU,
  0xbdb9e6563dcd2179U, 0xbe103b89be88383aU, 0xbe16a4953e337d4aU, 0x3d0d0703bce6c5a8U,
  0xbccd2179bd0d0703U, 0x3d4d2179bd66c5a8U, 0xbde05c9cbe337d4aU, 0xbdfa00cbbdcd2179U,
  0xbe09d27d3d8d0703U, 0x3d404f61bd66c5a8U, 0xbe0034ec3d337d4aU, 0xbde05c9cbdfa00cbU,
  0xbcb37d4a3d869df7U, 0xbe2d143e3d93700fU, 0x3dcd2179bd99d91bU, 0xbdf397c0bdcd2179U,
  0xbe1d0da1bd7397c0U, 0xbcb37d4abdd9f391U, 0xbd26ab323d99d91bU, 0xbe950a52bdc04f61U,
  0x3cb37d4a3e59f391U, 0x3d8034ecbe4383e7U, 0xbe66c5a8bd869df7U, 0x3d337d4a3e538a85U,
  0xbccd21793d8d0703U, 0xbe1d0da13d66c5a8U, 0x3db37d4abccd2179U, 0x3e337d4abd8034ecU,
  0x3d93700fbc99d91bU, 0x3c99d91b3dd38a85U, 0x3e3048c43d99d91bU, 0xbdd9f3913e3048c4U,
  0x3ded2eb43e46b86dU, 0xbe103b893de05c9cU, 0x3d404f61be1d0da1U, 0xbe88383a3e49ecf3U,
  0xbded2eb43de05c9cU, 0xbdb9e6563d0034ecU, 0x3d26ab323e869df7U, 0xbe49ecf3bdd9f391U,
  0xbd66c5a8be70633aU, 0x3bcd21793ea04227U, 0x3d93700fbcb37d4aU, 0xbd0d07033bcd2179U,
  0x3e7a00cb3df397c0U, 0xbdb9e6563dc6b86dU, 0xbe2376acbdf397c0U, 0xbb4d21793d93700fU,
  0x3e8034ec3e103b89U, 0xbe19d91b3d93700fU, 0xbda04227bb4d2179U, 0x3e103b893d19d91bU,
  0x3e103b893cb37d4aU, 0x3e36b1d0bdb37d4aU, 0x3cb37d4a3da04227U, 0xbe950a52bd26ab32U,
  0x3d4d21793e1d0da1U, 0xbde6c5a8bcb37d4aU, 0xbdad143ebd19d91bU, 0xbd869df73e09d27dU,
  0xbe836972be09d27dU, 0xbd404f61bdc6b86dU, 0xbd66c5a83e49ecf3U, 0xbe76cc46bd99d91bU,
  0x3cb37d4abe983ed8U, 0x3d404f613ecb8736U, 0xbc99d91bbd7397c0U, 0x3e16a4953c8034ecU,
  0x3c7424953d4b73d2U, 0xbd9380c53e1b21e9U, 0x3d371b703ddfcc33U, 0xbe1380c5bd4147a1U,
  0xbe676d58bcf42495U, 0xbd8e6aac3c742495U, 0xbdef0e7dbba2c30eU, 0x3c22c30e3e582b0fU,
  0x3c7424953e880f0eU, 0xbe01b36fbdacef3fU, 0xbde9f8643d22c30eU, 0xbe2cef3f3c8e6aacU,
  0xbd9380c5bda7d926U, 0x3c8e6aacbc4b73d2U, 0xbdb205573d9380c5U, 0xbc4b73d2bddab61bU,
  0x3d8e6aacbe095494U, 0xbba2c30ebe10f5b8U, 0xbd22c30e3c4b73d2U, 0xbe06c9883d843e7bU,
  0xbddfcc33bccb73d2U, 0xbde4e24c3d843e7bU, 0xbdd089eabd4147a1U, 0xbdbc31883e1b21e9U,
  0xbb22c30ebe582b0fU, 0xbd9dacf6bd8e6aacU, 0x3c8e6aac3d2cef3fU, 0xbe8bdfa0bd371b70U,
  0xbc8e6aacbca2c30eU, 0x3cf424953d9dacf6U, 0x3dacef3f3d9896ddU, 0x3db20557bbf42495U,
  0x3dd089ea3db20557U, 0xbd9380c5bd55a002U, 0xbdacef3f3db20557U, 0xbe371b70bd742495U,
  0xbe254e1aU, 0x3d371b703e043e7bU, 0xbd69f8643d742495U, 0x3dcb73d23d5fcc33U,
  0xbdb71b703c4b73d2U, 0x3e06c988bd4147a1U, 0xbde4e24cbd69f864U, 0xbd043e7bbe22c30eU,
  0x3bf424953d69f864U, 0xbdc65db9bdbc3188U, 0x3dacef3fbc742495U, 0xbb22c30e3d5fcc33U,
  0xbdc65db9U, 0xbcb71b70be8d2526U, 0x3e3c3188bd043e7bU, 0xbe06c988bcb71b70U,
  0xbccb73d23ccb73d2U, 0xbddfcc333e1b21e9U, 0x3d043e7b3db71b70U, 0xbd0e6aacbc8e6aacU,
  0x3e5d41273d043e7bU, 0xbe3ebc94bd55a002U, 0xbe2038023d5fcc33U, 0xbd7e50c63e22c30eU,
  0x3d8e6aacbe975157U, 0xbdb205573e1896ddU, 0x3e4147a1be10f5b8U, 0x3e27d926bddab61bU,
  0x3d7e50c6bdf93aadU, 0x3e2038023d7e50c6U, 0xbe160bd1be5fcc33U, 0x3dd089eabdb20557U,
  0x3ea17d883e5d4127U, 0x3c4b73d2be465db9U, 0x3c4b73d2be5089eaU, 0xbd7424953e095494U,
  0x3c67fb1c3e10fcf2U, 0x3c0b30443d2262faU, 0x3d67fb1cbd856396U, 0xbd2dfc55bd50c866U,
  0x3d8b30443ce7fb1cU, 0x3cb995b03d856396U, 0x3d3995b03d90fcf2U, 0x3de7fb1c00000000U,
  0x3e0b30443db3c902U, 0xbdbf625e3d96c99fU, 0x3d452f0b3df96124U, 0xbce7fb1c3d739477U,
  0xbc8b3044bdadfc55U, 0xbe2262fa3e027d40U, 0x3d452f0b3e70ae20U, 0x3d2262fa3db3c902U,
  0x3d5c61c13d67fb1cU, 0xbe0b30443e739477U, 0xbcff2dd2bd5c61c1U, 0x3e2262fa3dff2dd2U,
  0x3ce7fb1c3da82fa8U, 0xbc3995b0bce7fb1cU, 0xbe282fa83e6ae173U, 0xbdd0c8663e282fa8U,
  0x3da82fa83b3995b0U, 0xbe30e2ac3df39477U, 0x3d452f0bbd5c61c1U, 0xbdadfc55bc67fb1cU,
  0xbd7394773e0e169bU, 0x3bb995b0bd96c99fU, 0xbd5c61c1bde22e6eU, 0x3e2dfc55be8849edU,
  0xbcb995b0be0849edU, 0xbd9c964cbdb995b0U, 0x3d9c964cbcd0c866U, 0xbd2262fa3b3995b0U,
  0xbe452f0bbd90fcf2U, 0xbe2dfc55bdd0c866U, 0xbd90fcf2be569514U, 0xbe254951be4afbb8U,
  0xbdb3c902be13e348U, 0xbb3995b0bde22e6eU, 0xbd856396bd90fcf2U, 0xbb3995b0bd96c99fU,
  0x3d16c99f3c0b3044U, 0xbd9c964cbdcafbb8U, 0xbd96c99fbe89bd19U, 0xbdc52f0bbcd0c866U,
  0xbe027d40bdd0c866U, 0xbdf394773c3995b0U, 0x3e7f2dd2bd67fb1cU, 0xbda82fa83de22e6eU,
  0xbdbf625e3c8b3044U, 0xbdc52f0b3dc52f0bU, 0xbdcafbb83df96124U, 0xbc67fb1c3c3995b0U,
  0xbe30e2acbd90fcf2U, 0x3c3995b03e0849edU, 0x3e92701dbe3c7c07U, 0x3e4afbb8bc0b3044U,
  0xbcff2dd2bd739477U, 0xbe19aff6bd856396U, 0xbe1c964cbe027d40U, 0xbe4de20fbe36af59U,
  0xbe86d6c2bc3995b0U, 0x3da262fabd16c99fU, 0x3d2dfc55bce7fb1cU, 0x3eb82285bc8b3044U,
  0x3cb995b03d739477U, 0xbd2262fabd8b3044U, 0xbcd0c8663c67fb1cU, 0x3c67fb1cbe5c61c1U,
  0xbd595846be006e58U, 0xbe27f2c13cd95846U, 0x3d1e11a7bcd95846U, 0xbd8a4f72bdbbb4f6U,
  0xbda30234be07d72cU, 0x3db1d3dcbdf20b08U, 0xbda7f2c1bd1e11a7U, 0xbc8a4f72bd9e11a7U,
  0x3e14308d3dd95846U, 0x3e02e69e3d8a4f72U, 0xbd8a4f723df20b08U, 0xbdb1d3dcbb9e11a7U,
  0xbc459611be006e58U, 0x3e0cc7b9bd94308dU, 0xbe2302343e393cb0U, 0x3cb1d3dcbd4f772bU,
  0xbd76fb953df20b08U, 0x3bed1a7abd31d3dcU, 0x3d806e58be2f5b95U, 0x3da7f2c13c6d1a7aU,
  0x3d27f2c13dcf772bU, 0x3d6d1a7abdfbec22U, 0x3c1e11a73e14308dU, 0x3cc59611bcd95846U,
  0x3c459611be0f3fffU, 0xbd31d3dc3cc59611U, 0x3de829edbda7f2c1U, 0x3d6d1a7abe0a4f72U,
  0xbdc0a584be02e69eU, 0x3d8f3fffbc9e11a7U, 0x3cd95846bbed1a7aU, 0xbe19211a3bed1a7aU,
  0x3d006e583d1e11a7U, 0xbe60c119bd6d1a7aU, 0x3e14308dbb1e11a7U, 0x3d76fb953b1e11a7U,
  0xbdbbb4f6be2089eeU, 0x3d76fb953c8a4f72U, 0xbdb1d3dc3d8f3fffU, 0xbb1e11a7bdd95846U,
  0xbdb1d3dcbdc59611U, 0xbe0f3fffbe0cc7b9U, 0x3ced1a7abe344c22U, 0xbe0f3fff3dcf772bU,
  0x3d27f2c13ded1a7aU, 0xbd006e58be74834eU, 0xbe9cd584bcd95846U, 0xbe2a6b083d1e11a7U,
  0xbe31d3dcbe11b846U, 0xbe27f2c1bd595846U, 0xbd14308dbd0a4f72U, 0xbced1a7abd006e58U,
  0xbd006e58bde829edU, 0x3d94308d3d27f2c1U, 0x3e6aa234bded1a7aU, 0xbe855ee5bcd95846U,
  0x3d6d1a7a3e230234U, 0xbe2ce34fbe2a6b08U, 0xbb1e11a73dc59611U, 0xbdace34fbd4f772bU,
  0xbd806e58be5467b8U, 0x3e431dca3e0a4f72U, 0x3e92f4693c6d1a7aU, 0x3c459611be19211aU,
  0x3e431dca3e480e57U, 0x3e3e2d3dbd8f3fffU, 0x3c6d1a7abe27f2c1U, 0xbdb6c4693da7f2c1U,
  0xbdace34f3db1d3dcU, 0x3e2ce34fbdc59611U, 0x3d8f3fffbc8a4f72U, 0xbd94308d3dd467b8U,
  0x3cf41e65bda9015aU, 0xbda44f89be407a6dU, 0xbe1892ff3d8372d4U, 0xbc163a173e6d13acU,
  0xbe21f6a13c3bc89dU, 0xbb163a173dc9de0fU, 0x3e71c57dbb163a17U, 0xbde15722bd0372d4U,
  0xbc6157223cf41e65U, 0x3e29015abd4e8fe0U, 0x3d8cd676bbe15722U, 0x3d3bc89d3d4e8fe0U,
  0xbdd341b0bc963a17U, 0x3d4e8fe03d57f381U, 0x3deabac43d6abac4U, 0x3c8372d43d3264fbU,
  0xbe118846be1892ffU, 0xbe1892ff3d8372d4U, 0x3d9aebe8bcf41e65U, 0xbd163a173b163a17U,
  0xbe49de0f3d163a17U, 0xbcce8fe0bd741e65U, 0xbd57f3813da9015aU, 0xbc3bc89d3df8d036U,
  0x3de608f33dadb32bU, 0x3cce8fe0bdc9de0fU, 0xbc615722be21f6a1U, 0x3dfd82073d3264fbU,
  0x3d6abac4bd1f9db8U, 0xbe5a4c69be34bde4U, 0x3cbbc89dbd9f9db8U, 0xbe5341b0be478527U,
  0x3e0cd6763e49de0fU, 0xbc3bc89d3d7d8207U, 0x3c8372d43dce8fe0U, 0x3d452c3e3c8372d4U,
  0x3def6c9500000000U, 0xbd9f9db83e05cbbcU, 0x3d0372d4bd8372d4U, 0xbe34bde4be6861dcU,
  0x3c163a173d0372d4U, 0xbe0a7d8dbbe15722U, 0xbc963a17bd1f9db8U, 0xbcf41e65bd452c3eU,
  0xbca9015abc163a17U, 0x3d163a17bdadb32bU, 0x3d0cd676bcbbc89dU, 0xbcce8fe0be559a99U,
  0xbc3bc89d3d3264fbU, 0x3d7d82073dfd8207U, 0x3df8d036be244f89U, 0x3e3264fbbd4e8fe0U,
  0xbca9015a3c3bc89dU, 0xbe29015abe26a872U, 0x3b963a17be950da3U, 0xbe244f89be905bd2U,
  0x3c6157223e2b5a42U, 0xbb163a173e8cd676U, 0x3e0119ecbe29015aU, 0xbd8372d4bd615722U,
  0x3d963a17bb163a17U, 0x3c163a17be452c3eU, 0xbd1f9db83d3bc89dU, 0x3c8372d43c163a17U,
  0x3dc9de0f00000000U, 0xbdb716cc3d741e65U, 0x3e2b5a42bda9015aU, 0x3d3bc89d3d8824a5U,
  0xbd8824a53d9f9db8U, 0x3dc07a6dbe2db32bU, 0x3d163a173da9015aU, 0xbe50e8c8be5ca552U,
  0x3d3824023e1bcfb2U, 0xbc8da58b3dcd633dU, 0xbd464e29bd70cca0U, 0xbd464e29bd382402U,
  0x3e0da58bbcfef6c7U, 0x3d8690773db10eeeU, 0x3ddb8d643e184529U, 0xbca9f9da3dcd633dU,
  0xbd382402bc29f9daU, 0xbd5478503e382402U, 0xbd464e29bc29f9daU, 0xbd0da58b3d547850U,
  0x3de9b78cbca9f9daU, 0x3da2e4c63ddb8d64U, 0xbd94ba9fbd29f9daU, 0xbbe2a278be0305edU,
  0x3e3824023d9bcfb2U, 0xbce2a278bc8da58bU, 0xbda9f9dabd869077U, 0x3d1bcfb23d464e29U,
  0x3dd478503e113015U, 0x3da9f9da3e184529U, 0x3d382402bc62a278U, 0x3d94ba9fbdfef6c7U,
  0x3df0cca03ce2a278U, 0x3cc64e293d382402U, 0xbdbf39153d94ba9fU, 0xbdbf3915bc8da58bU,
  0x3d9bcfb2bde9b78cU, 0x3d62a2783e069077U, 0x3da2e4c63de2a278U, 0xbdb10eeebd9bcfb2U,
  0x3d9bcfb2bce2a278U, 0xbd464e293cfef6c7U, 0xbca9f9da3e4d633dU, 0xbe4d633dbd62a278U,
  0x3c29f9dabe42c39fU, 0x3cfef6c73d9bcfb2U, 0xbd94ba9fbca9f9daU, 0x3ca9f9dabcc64e29U,
  0xbbe2a2783d62a278U, 0x3e14ba9fbd94ba9fU, 0xbd29f9da3cfef6c7U, 0x3dbf39153d1bcfb2U,
  0x3ca9f9dabd464e29U, 0x3d7ef6c73c62a278U, 0xbd1bcfb2bde9b78cU, 0x3d29f9dabd94ba9fU,
  0xbdb82402be3f3915U, 0xbe0305edbdd47850U, 0x3b62a2783c8da58bU, 0xbee0dd333c8da58bU,
  0x3da2e4c63d0da58bU, 0x3c29f9da3e0da58bU, 0x3e1bcfb23dfef6c7U, 0xbe1bcfb2bd62a278U,
  0x3c62a278be4d633dU, 0xbe8a1b01be42c39fU, 0x3e069077bd464e29U, 0xbe967fe4bd869077U,
  0x3d70cca0bde2a278U, 0xbdb10eee3de9b78cU, 0x3d7ef6c7bb62a278U, 0xbe14ba9fbbe2a278U,
  0xbc62a278bd382402U, 0x3d0da58b3d1bcfb2U, 0xbdb824023e0da58bU, 0xbd70cca0bdbf3915U,
  0x3d382402be7ef6c7U, 0xbbe2a2783dc64e29U, 0x3e662d023c8da58bU, 0x3d29f9da00000000U,
  0x3de3568cbd2ee01dU, 0xbd233792bdd1d9bcU, 0xbe6eff163d003df3U, 0xbd2ee01dbc3a88a7U,
  0x3dd7ae01be032815U, 0xbd692ad13e491b54U, 0x3dd7ae01bdb4b462U, 0x3da90bd7be204d70U,
  0x3eb91396bc3a88a7U, 0x3e1a792a3d003df3U, 0xbe34b462be861238U, 0x3ea621b5bd8be67dU,
  0x3d8be67d3d9d634dU, 0x3d91bac2bcba88a7U, 0xbdeeff16be003df3U, 0xbb3a88a7bdc05cecU,
  0x3d3a88a7bdaee01dU, 0x3e405cec3ce92ad1U, 0x3d3a88a73dd1d9bcU, 0x3c0be67d3d463131U,
  0xbe2bf5fabdcc0577U, 0x3de3568c3e861238U, 0xbe11bac23d74d35bU, 0xbdb4b462bb3a88a7U,
  0x3c0be67dbde92ad1U, 0xbe6640ae3dcc0577U, 0xbd692ad13d3a88a7U, 0xbd8612383cba88a7U,
  0x3dd7ae01be379e84U, 0xbe54c3de3e233792U, 0x3e0328153e2bf5faU, 0x3dfaa7a03d233792U,
  0xbddd82463cba88a7U, 0xbe9a792a3e3d72caU, 0x3d978f08be4eef99U, 0x3ca337923d3a88a7U,
  0x3d463131U, 0xbe94a4e5bd003df3U, 0xbe233792be7d91c3U, 0xbe0328153d5d8246U,
  0xbe849d27be1a792aU, 0xbe2bf5fabd8be67dU, 0x3d74d35b3dd1d9bcU, 0xbcd1d9bcbd861238U,
  0x3e57ae01bd2ee01dU, 0xbdaee01d3e2bf5faU, 0x3d5d82463d692ad1U, 0xbc3a88a7bca33792U,
  0x3cba88a7bd9d634dU, 0xbd3a88a7bd233792U, 0x3ca33792be061238U, 0x3ca33792bde3568cU,
  0x3d8be67d3bba88a7U, 0xbd5d82463d0be67dU, 0x3d178f08be178f08U, 0x3c8be67dbd9d634dU,
  0x3e7d91c33e5a9824U, 0x3d8be67dbe81b304U, 0xbd803df3bd233792U, 0x3dd1d9bcbca33792U,
  0x3ca337923d5d8246U, 0x3c692ad1bd0be67dU, 0xbe3a88a7be463131U, 0x3d8be67d3cba88a7U,
  0x3cba88a7be405cecU, 0xbdb4b462be5a9824U, 0x3d3a88a7bd233792U, 0x3d9d634dbd5d8246U,
  0x3da33792bcd1d9bcU, 0xbd692ad13da33792U, 0xbd178f08be4c0577U, 0x3c8be67dbd003df3U,
  0xbdf9fdf33d146ec8U, 0x3cbb7e76bd3b7e76U, 0x3dbb7e763cbb7e76U, 0x3dcb1e5500000000U,
  0x3cdabe353cf9fdf3U, 0xbc8c9ed93c79fdf3U, 0xbd4b1e553c9c3eb8U, 0xbd9856c0bd0c9ed9U,
  0xbc3b7e763d146ec8U, 0xbd3b7e763c5abe35U, 0x3d04cee9bdabde97U, 0xbd628e24bdbb7e76U,
  0xbdc7365e3dee460cU, 0xbdb7967e3de28e24U, 0x3c79fdf33d88b6e1U, 0x3dc7365e3e221aacU,
  0xbd628e243de28e24U, 0x3cabde97bd1c3eb8U, 0xbd79fdf3bd04cee9U, 0xbc1c3eb83d79fdf3U,
  0xbe04cee9bdafc68fU, 0xbcbb7e763c3b7e76U, 0xbd1c3eb8baf9fdf3U, 0x3dbf666e3cf9fdf3U,
  0xbe7809f7bd3b7e76U, 0xbc8c9ed93dbf666eU, 0xbdc34e66bd6a5e14U, 0xbddea62c3d79fdf3U,
  0x3d2bde97be06c2e5U, 0xbd80e6f1bd0c9ed9U, 0x3dbb7e763d722e03U, 0xbd4b1e55bdf22e03U,
  0xbd628e243cf9fdf3U, 0x3b79fdf3bd8c9ed9U, 0xbdd6d63dbd9086d0U, 0xbe1e32b4bd1c3eb8U,
  0xbd80e6f13d6a5e14U, 0xbc8c9ed9bb79fdf3U, 0x3d9086d03d722e03U, 0x3d628e24bbbb7e76U,
  0x3d79fdf33d9856c0U, 0x3e146ec83d240ea7U, 0xbe35a283bd434e66U, 0xbcdabe35baf9fdf3U,
  0x3d0c9ed9bc1c3eb8U, 0xbd146ec83d722e03U, 0xbdbb7e76bd4b1e55U, 0x3d946ec8bc9c3eb8U,
  0x3d79fdf33dafc68fU, 0xbbf9fdf3bc9c3eb8U, 0x3de6761cbd434e66U, 0xbdbb7e763d628e24U,
  0xbdd6d63d3d722e03U, 0xbe27f69fbc79fdf3U, 0x3e2026b03bbb7e76U, 0xbdea5e14bd2bde97U,
  0x3da7f69f3d33ae87U, 0x3da7f69f3d9086d0U, 0x3e1086d0bccb1e55U, 0x3df615fbbbf9fdf3U,
  0x3d0c9ed93de6761cU, 0xbd84cee9bd88b6e1U, 0x3db3ae873ccb1e55U, 0x3dc7365ebcf9fdf3U,
  0xbbbb7e763c1c3eb8U, 0x3af9fdf33d79fdf3U, 0x3d33ae87bbbb7e76U, 0x3e1e32b43d946ec8U,
  0x3e2026b0bd33ae87U, 0x3ddea62cbdc7365eU, 0xbdb7967ebd3b7e76U, 0x3dc7365e3cea5e14U,
  0x3cd27fa63d2f6a60U, 0xbe29917f3e7e5a3eU, 0xbd0c551abdcca6c5U, 0x3dd858873d867c38U,
  0x3d00a357bcbb1c22U, 0xbe1ddfbdbd0c551aU, 0x3e1806dcU, 0x3defbc0cbe122dfbU,
  0x3e5e31683dfb6dceU, 0x3d00a357bd0c551aU, 0x3e867c38bde40a49U, 0x3ca3b89ebd2f6a60U,
  0xbe66f6ba3d867c38U, 0x3d5e3168bdd85887U, 0xbe5b44f83d80a357U, 0xbd9806dcbd1806dcU,
  0xbd9806dcbda9917fU, 0x3d867c38bd527fa6U, 0x3d8c551abd23b89eU, 0xbca3b89e3d0c551aU,
  0xbe9ddfbdbdc6cde4U, 0x3c69e32a3dbb1c22U, 0x3d3b1c22be7e5a3eU, 0xbe122dfbbc0c551aU,
  0xbe1af34c3da9917fU, 0xbde9e32a3dd27fa6U, 0xbd867c383dc0f503U, 0x3e0968a93ca3b89eU,
  0xbca3b89e3d00a357U, 0xbe1ddfbd3d23b89eU, 0x3d922dfb3dd27fa6U, 0xbe3e08933e7e5a3eU,
  0x3da3b89eU, 0x3d527fa63d80a357U, 0xbdbb1c22bcd27fa6U, 0x3dbb1c22bdfb6dceU,
  0xbda9917f3dc0f503U, 0xbd1806dc3e29917fU, 0x3e6fbc0c3eb9a5eaU, 0xbe2c7def3c69e32aU,
  0xbd2f6a603d00a357U, 0x3e1806dcbc8c551aU, 0x3c8c551a3d922dfbU, 0xbdd858873d1806dcU,
  0xbd867c38be2c7defU, 0xbd46cde43e640a49U, 0x3e6ccf9b3e038fc8U, 0xbce9e32abd3b1c22U,
  0x3d922dfb3d2f6a60U, 0x3da9917fbbbb1c22U, 0xbce9e32a3d5e3168U, 0xbd7594edbe038fc8U,
  0x3ce9e32abd9806dcU, 0xbde9e32abd1806dcU, 0x3b3b1c223e038fc8U, 0xbc0c551abce9e32aU,
  0x3e93a433bc3b1c22U, 0xbda3b89ebe354341U, 0x3dc6cde4bdd27fa6U, 0xbea81b47bde40a49U,
  0xbc8c551a3cd27fa6U, 0xbc69e32abda3b89eU, 0xbcbb1c22be850600U, 0x3e527fa63e72a87cU,
  0x3e4ca6c5bdefbc0cU, 0xbd80a3573dbb1c22U, 0x3e0f418abd80a357U, 0xbd69e32abce9e32aU,
  0x3d7594edbd9ddfbdU, 0xbd0c551abd922dfbU, 0x3de40a49bd80a357U, 0xbd5e3168U,
  0x3da06fb8be87b820U, 0x3f2592c5bfc6812eU, 0xbf607366bf09c118U, 0xbf1044413fb11054U,
  0xbf35caa5bfc3c762U, 0x3f0079813f3e394cU, 0x3f10c8b63d7aef20U, 0x3f127b52bfd47a78U,
  0x3f17ef6a3ccc6980U, 0x3e8028d8bfb175f7U, 0xbfbab718bed5726cU, 0xbde063ec3f652852U,
  0x3f730a923ed61eafU, 0x3f3a78c53fbb4280U, 0x3f0a32e3bebb5decU, 0xbf48f16dbee58416U,
  0x3db84f3cbcf23c40U, 0xbc937296bc937296U, 0xbcd2a3b23c52a3b2U, 0xbddd2be23ca882f5U,
  0xbaa882f53aa882f5U, 0xbcd2a3b2be10d08bU, 0x3c9dfac6bbd2a3b2U, 0x3d3d9354bd2882f5U,
  0xbaa882f5be122190U, 0x3d8b8c73bd52a3b2U, 0xbb7cc470bdf4de4cU, 0xbd0e2e7fU,
  0x3aa882f53d384f3cU, 0xbcf23c40bd42d76bU, 0x3cdd2be23b7cc470U, 0xbd233eddbce7b411U,
  0x3cdd2be23cfcc470U, 0xbcfcc4703d18b6aeU, 0xbbfcc470bd626ff9U, 0xbd18b6aebd0e2e7fU,
  0x3cbd93543cd2a3b2U, 0x3bfcc470bd778058U, 0x3d7cc470bd626ff9U, 0xbd52a3b2bd98b6aeU,
  0xbd723c40bc937296U, 0xbd67b411bdb5ad30U, 0xbd0e2e7fbdcd5f9bU, 0x3c7cc4703cf23c40U,
  0xbc2882f53c2882f5U, 0xbba882f5bda882f5U, 0xbd1dfac63aa882f5U, 0x3ba882f5bbfcc470U,
  0x3c1372963ca882f5U, 0xbb7cc4703d8b8c73U, 0xbcb30b24bd9614a2U, 0xbda09cd2baa882f5U,
  0xbd52a3b2bd1dfac6U, 0xbd6cf829bd5d2be2U, 0x3c88ea673cdd2be2U, 0x3bd2a3b2bda5e0e9U,
  0x3d330b24bca882f5U, 0xbc3d93543c3d9354U, 0xbcb30b24bd2882f5U, 0xbd83a64f3c137296U,
  0xbd0e2e7f3c3d9354U, 0xbc3d9354bc9dfac6U, 0x3c2882f53e2731efU, 0x3d42d76b3d0e2e7fU,
  0x3d384f3cbd778058U, 0xbd86485bbd330b24U, 0x3d9614a2bcfcc470U, 0xbd8b8c733d08ea67U,
  0xbcc81b83bd384f3cU, 0x3c2882f53aa882f5U, 0x3bd2a3b23d03a64fU, 0x3c1372963d0e2e7fU,
  0xbd723c40bd1dfac6U, 0x3d2dc70dbdc2d76bU, 0xbd0e2e7fbdb84f3cU, 0xbc2882f53d3d9354U,
  0xbbd2a3b23db06918U, 0x3d86485bbd83a64fU, 0xbaa882f53d330b24U, 0xbd2882f53cd2a3b2U,
  0xbc52a3b2bd90d08bU, 0xbda09cd2bd8b8c73U, 0xbd233eddbce7b411U, 0x3b7cc4703cbd9354U,
  0x3c9dfac6bd03a64fU, 0xbde26ff9baa882f5U, 0x3b2882f53ce7b411U, 0x3cb30b243c52a3b2U,
  0x3d57e7ca3c3d9354U, 0xbcdd2be2bdb5ad30U, 0xbd8e2e7f3ce7b411U, 0x3c7cc470bc937296U,
  0x3d233edd3dbaf148U, 0xbcfcc470bd1dfac6U, 0xbcd2a3b23d0e2e7fU, 0x3bfcc470bc2882f5U,
  0x3bd2a3b23c137296U, 0xbc67b4113c9dfac6U, 0xbba882f53c3d9354U, 0xbd57e7ca3d52a3b2U,
  0x3cdd2be2bc9dfac6U, 0xbd233eddbcc81b83U, 0x3c9dfac6bc88ea67U, 0x3ce7b411bc52a3b2U,
  0x3c937296bd08ea67U, 0xbaa882f5bcd2a3b2U, 0xbbfcc470bc52a3b2U, 0xbc67b4113c88ea67U,
  0x3d2882f53cf23c40U, 0x3cfcc470bd8e2e7fU, 0xbda5e0e93dda89d6U, 0xbd9614a23d481b83U,
  0x3aa882f53d03a64fU, 0x3bd2a3b2bc7cc470U, 0x3aa882f5bde26ff9U, 0xbc67b411bd0e2e7fU,
  0x3d626ff93db84f3cU, 0x3c9dfac6bde26ff9U, 0x3c7cc470baa882f5U, 0x3c2882f53cb30b24U,
  0x3e06485bbd330b24U, 0x3dcabd8f3c3d9354U, 0xbc67b411bc2882f5U, 0xbd5d2be23c3d9354U,
  0x3dd2a3b23c3d9354U, 0x3c2882f53aa882f5U, 0xbd233edd3cb30b24U, 0xbd0e2e7f3d5d2be2U,
  0x3d1dfac63d03a64fU, 0xbc67b411bcc81b83U, 0xbd778058be03a64fU, 0xbd723c40bcfcc470U,
  0x3d1dfac63cd2a3b2U, 0x3c52a3b2bd98b6aeU, 0x3b7cc4703d18b6aeU, 0xbd9614a2bcbd9354U,
  0xbcb30b24bcc81b83U, 0x3d626ff93bfcc470U, 0x3ba882f53c52a3b2U, 0x3d330b243c3d9354U,
  0x3e0cdd79bbd2a3b2U, 0x3c67b411bdb06918U, 0xbb7cc470bb2882f5U, 0xbd98b6ae3c7cc470U,
  0x3d4d5f9b3dd2a3b2U, 0x3cf23c40bc52a3b2U, 0xbd9614a2bd57e7caU, 0xbd137296bce7b411U,
  0xbaa882f53d330b24U, 0x3c52a3b2be0e2e7fU, 0xbd08ea67bdc0355fU, 0xbc3d9354bc67b411U,
  0x3e1dfac6bd5d2be2U, 0x3bd2a3b2bd5d2be2U, 0x3c2882f5bc67b411U, 0xbbd2a3b23c9dfac6U,
  0x3db069183c67b411U, 0x3c3d9354bdb84f3cU, 0xbc52a3b2bd2882f5U, 0xbd98b6aebcc81b83U,
  0x3d9fe39a3d83ac60U, 0x3cceea4ebc3c1ad3U, 0xbcf48946bd249779U, 0xbdb05926bc967bdcU,
  0xbb967bdcbcf48946U, 0x3cd8520cbd294b58U, 0x3d1b2fbb3d7df103U, 0x3ce1b9cabe098d37U,
  0xbdd39e2dbd3766f4U, 0x3c3c1ad3bdaba547U, 0xbd6fd567bcf48946U, 0xbd815271bde1b9caU,
  0xbded7b77bd03ac60U, 0xbd7489463a967bdcU, 0xbd3766f43d08603fU, 0xbca94b58bceb2188U,
  0x3c61b9ca3d0d141eU, 0xba967bdc3d08603fU, 0x3d1b2fbbbd32b315U, 0xbdc0ceb2bd2dff36U,
  0xbbbc1ad3bdc0ceb2U, 0xbd793d24bc61b9caU, 0x3cb2b3153c748946U, 0xbdc58291bd3c1ad3U,
  0x3d03ac60bc294b58U, 0x3d4a36703d167bdcU, 0xbcb2b315bd3c1ad3U, 0xbd9b2fbbbda23d89U,
  0xbde8c798bdadff36U, 0xbd967bdc3c167bdcU, 0xbd88603fbc83ac60U, 0xbd11c7fd3c83ac60U,
  0x3d9421ed3c3c1ad3U, 0x3e0be7273d40ceb2U, 0x3d91c7fdbc9fe39aU, 0xbdeb2188bb967bdcU,
  0xbceb21883c8d141eU, 0xbdc0ceb2bd8aba2fU, 0xbb967bdc3d6b2188U, 0x3c3c1ad33cf48946U,
  0x3c294b58bca94b58U, 0x3dadff36bce1b9caU, 0x3d1b2fbbbd9b2fbbU, 0xbc61b9cabbbc1ad3U,
  0xbb167bdc00000000U, 0xbd860650bd8d141eU, 0xbc9fe39a3da49779U, 0xbdf22f563d3766f4U,
  0xbb61b9cabc83ac60U, 0xbd03ac60bd5d05ebU, 0x3cf48946bd458291U, 0xbe154ee43dadff36U,
  0x3cfdf103bd9b2fbbU, 0x3cbc1ad33d249779U, 0x3d58520c3d458291U, 0x3ca94b58bd0d141eU,
  0x3c4eea4ebddd05ebU, 0x3d458291bd815271U, 0xbd7df1033b967bdcU, 0xbcf489463d6b2188U,
  0x3da6f1683c4eea4eU, 0x3e0025793c748946U, 0xbcb2b3153d860650U, 0xbc4eea4ebd03ac60U,
  0xbd58520c3c294b58U, 0xbd6b2188bda49779U, 0xbd967bdcbd8aba2fU, 0x3c61b9ca3c294b58U,
  0x3d748946bd1fe39aU, 0x3c4eea4ebcbc1ad3U, 0xbc83ac60bd666da9U, 0xbd9b2fbbbd748946U,
  0x3c294b583b167bdcU, 0xbd40ceb2bdb2b315U, 0xbd11c7fd3cd8520cU, 0xbd03ac6000000000U,
  0xbcf489463c9fe39aU, 0x3c167bdcbd249779U, 0xbd58520c3da6f168U, 0xbc967bdcba967bdcU,
  0x3d32b315bdf22f56U, 0x3a967bdcbd1b2fbbU, 0x3b167bdcbbbc1ad3U, 0xbdaba5473d58520cU,
  0x3c61b9cabd8aba2fU, 0x3cbc1ad33d3766f4U, 0xbdadff36bcbc1ad3U, 0x3df6e335bd32b315U,
  0x3d7df103bd0d141eU, 0xbd7df103bdd8520cU, 0xbdbc1ad33cbc1ad3U, 0xbd967bdcbd0d141eU,
  0x3d1b2fbb3d40ceb2U, 0x3db50d053c9fe39aU, 0x3c7489463d3c1ad3U, 0xbd793d24bcb2b315U,
  0x3d88603f3dd39e2dU, 0x3d4582913a967bdcU, 0xbd88603fbe03ac60U, 0xbb967bdc3d61b9caU,
  0x3d7489463d61b9caU, 0x3d815271bdb9c0e4U, 0xbd98d5cb3cc58291U, 0xbd8f6e0ebdaba547U,
  0x3dfdf103be03ac60U, 0x3d458291bd03ac60U, 0xbd294b58bcceea4eU, 0xbd9421edbcceea4eU,
  0x3dcc905f3bbc1ad3U, 0xbceb21883cc58291U, 0x3c83ac603c167bdcU, 0xbd98d5cb3b167bdcU,
  0xbd9421ed3c294b58U, 0x3d32b315bc61b9caU, 0xbd08603fbda23d89U, 0xbd03ac603d748946U,
  0xbd8aba2fU, 0x3d88603fbdbe74c2U, 0x3d9d89aabddf5fdbU, 0xbcd8520cbd11c7fdU,
  0x3e0aba2fbd2dff36U, 0x3cd8520cbc748946U, 0x3cd8520cbd6b2188U, 0xbde413b93d167bdcU,
  0x3d8d141e3cd8520cU, 0xbd8f6e0ebd0d141eU, 0xbd539e2d3cbc1ad3U, 0xbd83ac60bd815271U,
  0x3d4eea4e3d967bdcU, 0xbca94b58bd167bdcU, 0xbc3c1ad3bcb2b315U, 0xbc61b9cabd83ac60U,
  0xbd40ceb23daba547U, 0xbd32b315bdf48946U, 0xbc61b9ca3d58520cU, 0xbc83ac60bd748946U,
  0x3d9fe39abda94b58U, 0x3cd8520cbb967bdcU, 0x3cbc1ad3bd1fe39aU, 0xbd3766f4bd3c1ad3U,
  0x3df6e3353c8d141eU, 0xbcceea4ebb967bdcU, 0xbd9d89aabcfdf103U, 0xbc167bdc3c8d141eU,
  0xbe050125bc9c0effU, 0xbdb156dcbd2326f3U, 0xbd62fe8a3d3f86c4U, 0x3da6b2edbcc69eb9U,
  0xbae2fe8a3be2fe8aU, 0x3e116b103c7f5e5bU, 0x3c0ddf16be0a531cU, 0xbdca2ab33baa3ee8U,
  0xbcc69eb9bd14f70bU, 0xbc7f5e5bbd5be696U, 0xbd916b103c8ddf16U, 0x3d469eb93d62fe8aU,
  0xbcf12e733d988305U, 0xbd833b283c469eb9U, 0xbd5be696bd14f70bU, 0xbd3156dcbddbe696U,
  0xbe3156dcbc9c0effU, 0xbdd4cea1bd3156dcU, 0xbcd4cea13dd85a9cU, 0x3df12e73bd14f70bU,
  0x3d6a167e3c7f5e5bU, 0x3dfbd2613dd85a9cU, 0xbae2fe8abe61388dU, 0xbcf12e73bc2a3ee8U,
  0xbd0ddf16bcc69eb9U, 0xbdd142a73c2a3ee8U, 0xbd2a3ee83d2326f3U, 0x3dea167e3d784667U,
  0xbd8a531c3deda278U, 0xbd712e733daa3ee8U, 0xbc2a3ee8bd0ddf16U, 0x3cd4cea1bda6b2edU,
  0xbd916b103d14f70bU, 0xbdbbfaca3cb86ed0U, 0xbd1c0eff3d784667U, 0x3d469eb9bcaa3ee8U,
  0xbc469eb93d2326f3U, 0x3df12e733d8a531cU, 0xbc469eb9be06c722U, 0x3d6a167e3c8ddf16U,
  0xbcaa3ee83c8ddf16U, 0x3b62fe8abcff5e5bU, 0x3c9c0effbcb86ed0U, 0x3e3bfaca3d62fe8aU,
  0xbc8ddf163dc312bfU, 0xbd6a167ebd712e73U, 0xbd1c0effbd06c722U, 0xbd8ddf16bc469eb9U,
  0xbc9c0effbdbf86c4U, 0x3dadcae23d784667U, 0x3c62fe8abc8ddf16U, 0x3b62fe8abc8ddf16U,
  0xbd54cea1bd14f70bU, 0xbd8ddf163c62fe8aU, 0x3dd4cea1bc2a3ee8U, 0xbcaa3ee83d833b28U,
  0x3c0ddf163df12e73U, 0xbd14f70b3c62fe8aU, 0x3de68a84bc8ddf16U, 0x3cb86ed0bce2fe8aU,
  0x3d0ddf163cff5e5bU, 0x3c0ddf163c62fe8aU, 0x3e1c0eff3d988305U, 0x3c0ddf163d94f70bU,
  0x3ce2fe8a3ae2fe8aU, 0xbcb86ed0bc8ddf16U, 0x3b62fe8a3cd4cea1U, 0xbc2a3ee8bd1c0effU,
  0x3d3156dc3baa3ee8U, 0xbe3dc0c73d06c722U, 0x3c0ddf163cb86ed0U, 0x3d8a531c00000000U,
  0x3b62fe8abd0ddf16U, 0xbdadcae23d988305U, 0x3d7f5e5bbc7f5e5bU, 0x3e0a531cbcc69eb9U,
  0x3b62fe8a3d0ddf16U, 0xbd916b103c0ddf16U, 0x3e331cd9bd916b10U, 0x3d14f70bbb62fe8aU,
  0x3dc312bfbc9c0effU, 0x3d4db6adbc7f5e5bU, 0xbcb86ed0bcd4cea1U, 0x3db156dcbcff5e5bU,
  0xbd1c0eff3c469eb9U, 0xbdb86ed0bd1c0effU, 0x3cf12e733ae2fe8aU, 0x3dd4cea13d2a3ee8U,
  0xbc8ddf163d9f9af9U, 0xbd7846673c8ddf16U, 0x3d6a167ebd469eb9U, 0x3ce2fe8abdb4e2d6U,
  0x3b62fe8abcaa3ee8U, 0x3c62fe8abd6a167eU, 0x3e0fa513bd4db6adU, 0x3db156dcbd14f70bU,
  0xbdadcae2be088d1fU, 0xbdb86ed0bd1c0effU, 0x3d386ed03dd4cea1U, 0x3cf12e733d54cea1U,
  0xbe3dc0c7bd712e73U, 0xbcc69eb93dd4cea1U, 0xbc8ddf16bdbf86c4U, 0x3b62fe8a3cff5e5bU,
  0xbcc69eb93df4ba6dU, 0xbdadcae2bdcdb6adU, 0x3c7f5e5bbd469eb9U, 0xbd0ddf16bcff5e5bU,
  0xbc8ddf16bdd4cea1U, 0xbd7f5e5b3d0ddf16U, 0x3baa3ee83ce2fe8aU, 0xbcf12e73bc7f5e5bU,
  0xbd06c7223c7f5e5bU, 0x3caa3ee8bdca2ab3U, 0x3ddf72903e01752bU, 0xbd62fe8abcd4cea1U,
  0xbd833b28bde2fe8aU, 0xbd2326f33d06c722U, 0xbd2326f3bc0ddf16U, 0xbcaa3ee8bc62fe8aU,
  0xbe2326f33c2a3ee8U, 0xbd54cea1bae2fe8aU, 0xbd0ddf163c62fe8aU, 0xbdb4e2d63c62fe8aU,
  0xbb62fe8abcb86ed0U, 0x3ae2fe8a3c0ddf16U, 0xbc469eb9bd7f5e5bU, 0xbae2fe8a3cff5e5bU,
  0xbcb86ed0be116b10U, 0x3db156dcbd4db6adU, 0x3d06c722bd62fe8aU, 0x3cb86ed0bcf12e73U,
  0xbe0a531cbd2a3ee8U, 0xbdea167e3dadcae2U, 0xbb62fe8abd8a531cU, 0x3d0ddf163c2a3ee8U,
  0xbbaa3ee83e0c1919U, 0xbdadcae2bd14f70bU, 0x3c9c0effbdb156dcU, 0xbdc312bfbd14f70bU,
  0xbcff5e5bbda326f3U, 0xbd0ddf163ce2fe8aU, 0xbd712e73bdbbfacaU, 0xbc9c0effbbaa3ee8U,
  0x3c404f303e143d0bU, 0xbd605c633d48527dU, 0xbd3048973c2041feU, 0x3d304897bd605c63U,
  0x3cc04f303d48527dU, 0x3d103b64bd5055caU, 0xbd983eb1bd404f30U, 0x3dcc54243d5055caU,
  0x3b0034cbbbc04f30U, 0x3c404f303d685fb0U, 0xbd384be43dc450d7U, 0x3d2041fe3d0034cbU,
  0xbd5055ca3ddc5abdU, 0xbc0034cbbbc04f30U, 0xbd48527d3d0034cbU, 0x3d585917bcb04897U,
  0x3b0034cb3cd055caU, 0x3b0034cbbd843671U, 0xbd903b64bd404f30U, 0xbbc04f303d384be4U,
  0xbda041fe3ca041feU, 0xbc605c633d183eb1U, 0x3cd055ca3b0034cbU, 0xbe2443a4bd5055caU,
  0x3cf062fd3c2041feU, 0xbcf062fd3bc04f30U, 0x3ca041febd0034cbU, 0x3da041fe3c404f30U,
  0xbbc04f30bd0034cbU, 0x3d2041fe3d48527dU, 0xbd605c633d304897U, 0x3d0034cb3d103b64U,
  0x3cf062fdbda443a4U, 0xbc0034cbbd903b64U, 0xbc605c63bd8c39beU, 0xbda8454a3db44a3dU,
  0xbd7866493d943d0bU, 0xbd8838183c605c63U, 0x3c8034cbbd304897U, 0xbdac46f13c903b64U,
  0xbd585917bd384be4U, 0xbb8034cb3c0034cbU, 0xbcc04f303d685fb0U, 0xbdf866493d304897U,
  0x3d943d0bbd605c63U, 0x3d883818bd28454aU, 0x3dc8527d3c8034cbU, 0x3de45e0abd304897U,
  0xbdf464a33d786649U, 0x3d883818bce05c63U, 0xbd943d0bbd5055caU, 0xbcf062fdbe103b64U,
  0xbb8034cbbd0034cbU, 0x3c2041febd183eb1U, 0xbd585917be083818U, 0x3d404f30bda8454aU,
  0x3dc450d73cd055caU, 0xbcf062fd3de05c63U, 0xbcc04f303d943d0bU, 0xbdf866493cf062fdU,
  0x3da443a4bcc04f30U, 0xbda8454abdb44a3dU, 0x3db44a3dbd28454aU, 0xbb8034cbbd083818U,
  0x3d0838183b0034cbU, 0xbce05c63bc2041feU, 0xbdbc4d8a3d685fb0U, 0x3d8838183d103b64U,
  0xbb8034cb3c903b64U, 0xbce05c63bce05c63U, 0x3cd055ca3d103b64U, 0x3da041fe3c8034cbU,
  0xbc2041febd48527dU, 0x3c404f30bd786649U, 0xbd083818bd786649U, 0x3c605c63bd786649U,
  0xbc404f303d983eb1U, 0xbe0034cb3ca041feU, 0xbd103b64bdb44a3dU, 0xbdac46f13cc04f30U,
  0xbd983eb13c903b64U, 0x3d903b64bcf062fdU, 0xbc2041febcd055caU, 0xbcd055cabcf062fdU,
  0xbe143d0b3ce05c63U, 0xbe404f30bcc04f30U, 0x3c0034cbbd48527dU, 0x3ce05c633bc04f30U,
  0xbd183eb13cf062fdU, 0x3d3048973da8454aU, 0xbd48527dbc404f30U, 0xbca041fe3df464a3U,
  0x3cd055cabd304897U, 0xbdcc54243cd055caU, 0x3cd055ca3c0034cbU, 0x3e1a3f843c605c63U,
  0xbe02359ebd5055caU, 0x3e7062fdbe28454aU, 0xbcb04897bdd85917U, 0xbe0e3a91be304897U,
  0xbbc04f30bd843671U, 0xbe0838183d883818U, 0xbd943d0bbd7062fdU, 0x3dd85917be264477U,
  0x3df062fd3c8034cbU, 0x3cc04f303d9c4057U, 0xbe2443a43d0034cbU, 0xbe7e68c33d9c4057U,
  0x3e163ddebd5055caU, 0xbd083818bd843671U, 0x3d883818bd083818U, 0x3d685fb03db44a3dU,
  0xbc404f303d48527dU, 0x3d384be4bd103b64U, 0xbb0034cb3ce05c63U, 0x3d48527dbd404f30U,
  0x3d2041febc8034cbU, 0x3da443a4bc0034cbU, 0x3c605c633da8454aU, 0x3e02359ebd48527dU,
  0xbc0034cb3d183eb1U, 0x3cb048973dd45770U, 0x3cb04897bd8c39beU, 0x3e183eb1bca041feU,
  0xbd8436713da443a4U, 0xbd9c4057bca041feU, 0x3d2041febc404f30U, 0xbd2041fe3ca041feU,
  0xbd404f30be2242d1U, 0x3cd055cabd8c39beU, 0xbcd055cabdd45770U, 0xbd883818bd083818U,
  0xbda443a4bd943d0bU, 0xbd9c4057bc605c63U, 0xbb8034cbbd8034cbU, 0xbd983eb1bb8034cbU,
  0x3cc04f303c2041feU, 0xbd3048973c903b64U, 0xbd304897bda041feU, 0xbdcc54243e2a461eU,
  0x3e0c39bebe0e3a91U, 0xbd8034cbbdf062fdU, 0x3dd45770bde85fb0U, 0x3c903b64bc8034cbU,
  0x3d30b7b83c9d1516U, 0xbdb0b7b8bd8cb839U, 0x3d8ffdfe3df570f2U, 0xbad171723d99cf50U,
  0xbc8ffdfebd374344U, 0xbc517172bdba890aU, 0x3c6b9fa03bd17172U, 0xbdb3fd7ebcde8889U,
  0xbddb42c33c6b9fa0U, 0x3d4ae5e6bd722b2cU, 0x3cde8889bdff4243U, 0x3d445a5bbe014404U,
  0xbd23a0a13d6b9fa0U, 0x3da6e667bda6e667U, 0xbdbdcecfbc02e6e7U, 0x3c6b9fa0bd02e6e7U,
  0x3c82e6e73cf8b6b7U, 0x3d78b6b7U, 0x3d8972733b517172U, 0x3ad171723cc45a5bU,
  0x3d0972733c6b9fa0U, 0x3d8cb8393d3dcecfU, 0x3c9d15163d9d1516U, 0x3c8ffdfe3d9343c4U,
  0x3c8ffdfe3d374344U, 0x3d2a2c2dbd8cb839U, 0x3bd17172bceb9fa0U, 0x3dcae5e63cb74344U,
  0x3d2a2c2d3ceb9fa0U, 0x3d374344bd2a2c2dU, 0xbdb0b7b8bd57fcfeU, 0xbd3dcecf3c6b9fa0U,
  0x3de51415bc82e6e7U, 0x3cb743443b517172U, 0x3d8ffdfe3d96898aU, 0xbdd4b738bd651415U,
  0x3b9d1516bb517172U, 0x3c82e6e7bd8cb839U, 0x3d78b6b73d8cb839U, 0xbdfbfc7d3caa2c2dU,
  0xbd897273bd374344U, 0xbd02e6e7bc517172U, 0x3d30b7b8be0b1556U, 0x3d99cf50bdc7a021U,
  0xbd445a5b3c02e6e7U, 0x3c1d1516bdc45a5bU, 0xbd57fcfebcc45a5bU, 0x3caa2c2d3d5e8889U,
  0x3dc45a5bbc1d1516U, 0xbdc11495bd99cf50U, 0x3d16898a3ad17172U, 0xbbd171723e33fd7eU,
  0x3caa2c2dbcde8889U, 0xbd82e6e7bd02e6e7U, 0x3d02e6e73df22b2cU, 0x3d0ffdfebc82e6e7U,
  0xbcc45a5bbd16898aU, 0x3b9d1516bcb74344U, 0xbcf8b6b7bd9343c4U, 0x3d6b9fa0bc8ffdfeU,
  0xbc8ffdfebcc45a5bU, 0x3cde88893d097273U, 0x3d02e6e73cf8b6b7U, 0xbdb0b7b8bd4ae5e6U,
  0x3dde88893d16898aU, 0x3cf8b6b73dd7fcfeU, 0x3d097273bdc45a5bU, 0x3d862cadbd0ffdfeU,
  0x3daa2c2dbe0e5b1bU, 0xbbd17172bdad71f2U, 0x3dc11495bd02e6e7U, 0x3d4ae5e6bd99cf50U,
  0x3c9d15163d78b6b7U, 0x3caa2c2dbdc7a021U, 0x3bd171723d3dcecfU, 0xbd722b2c3c1d1516U,
  0x3b517172bd1d1516U, 0x3da05adbbbd17172U, 0xbd4ae5e6bd445a5bU, 0xbdb0b7b8bd445a5bU,
  0x3d651415bda05adbU, 0xbad17172bcaa2c2dU, 0x3d7f4243bdce2bacU, 0xbdc7a021bc1d1516U,
  0xbdc45a5bbd23a0a1U, 0xbd9343c4bdd4b738U, 0x3d6514153cf8b6b7U, 0x3da05adb3cc45a5bU,
  0x3d23a0a1bcf8b6b7U, 0xbcd17172bbd17172U, 0x3c517172bd7f4243U, 0xbd097273bdbdcecfU,
  0x3caa2c2dbcf8b6b7U, 0x3c02e6e700000000U, 0x3d51717200000000U, 0xbdce2bac3d02e6e7U,
  0x3d57fcfe3e02e6e7U, 0xbe16898abd862cadU, 0xbcd171723de51415U, 0xbcf8b6b73cc45a5bU,
  0x3cc45a5bbdd4b738U, 0x3e014404bda05adbU, 0x3da3a0a13d7f4243U, 0xbe0972733d7f4243U,
  0xbe4fce8fbe1b7233U, 0xbad17172bdb3fd7eU, 0xbcd17172bdd7fcfeU, 0x3e30b7b8bd517172U,
  0xbd30b7b83d097273U, 0xbd651415bd4ae5e6U, 0x3c02e6e7bb9d1516U, 0xbd02e6e7bb517172U,
  0x3c6b9fa0bad17172U, 0xbd99cf503c6b9fa0U, 0xbc6b9fa03d0ffdfeU, 0x3d23a0a13cde8889U,
  0x3c1d1516bd517172U, 0xbc8ffdfebd4ae5e6U, 0x3cb743443c1d1516U, 0xbd7f42433c374344U,
  0xbc517172bd897273U, 0x3d82e6e7bd3dcecfU, 0xbcb74344bd445a5bU, 0x3c517172bd23a0a1U,
  0xbc5171723da05adbU, 0x3d0ffdfe3dad71f2U, 0xbd5171723de51415U, 0x3d517172bd02e6e7U,
  0x3cd17172bdb74344U, 0xbc8ffdfe3c82e6e7U, 0xbbd17172bd23a0a1U, 0xbc02e6e7bdb3fd7eU,
  0x3cde8889bd3dcecfU, 0x3da3a0a13c517172U, 0x3d722b2c3e014404U, 0xbdba890a3d722b2cU,
  0xbd78b6b7bcc45a5bU, 0xbdb0b7b8bdeee566U, 0x3d9343c4bda05adbU, 0x3c9d1516bde859daU,
  0xbda6e6673c9d1516U, 0x3ad171723d0ffdfeU, 0x3cde8889bcd17172U, 0xbd6b9fa03ddb42c3U,
  0xbd114ab43cb59d61U, 0xbdec1964bd47c6b8U, 0x3c59f00e3d59f00eU, 0xbdba27b7bc114ab4U,
  0xbd114ab4be181a34U, 0x3e0cc05ebd59f00eU, 0x3dde7a64bdd0db63U, 0xbd8cc05ebb914ab4U,
  0xbe05f0debcd9f00eU, 0xbb114ab4be0cc05eU, 0x3d50db63bd47c6b8U, 0x3dec1964bd3eb20cU,
  0xbd9a5f5f3dac88b6U, 0xbd359d61bcd9f00eU, 0xbd1a5f5f3ca3740aU, 0x3cfe42bbbdf0a3baU,
  0xbd50db63bd83abb3U, 0x3da7fe603d50db63U, 0x3e114ab43d23740aU, 0xbc359d613d083609U,
  0x3d50db633c7e42bbU, 0x3d114ab4bc359d61U, 0x3ca3740a3bd9f00eU, 0x3d0836093e0cc05eU,
  0x3c114ab43c359d61U, 0x3c7e42bbbc359d61U, 0xbd6304b9bc914ab4U, 0x3b914ab43d9a5f5fU,
  0x3db1130bbca3740aU, 0x3ca3740abd083609U, 0xbca3740a3ca3740aU, 0xbb114ab4bcc7c6b8U,
  0x3b914ab4U, 0x3d752e10bd3eb20cU, 0x3d114ab43d3eb20cU, 0xbbd9f00ebc7e42bbU,
  0xbdbeb20cbb914ab4U, 0xbc359d613d752e10U, 0xbd0836093d59f00eU, 0x3d2c88b6bd47c6b8U,
  0x3c114ab400000000U, 0x3de304b9bd752e10U, 0xbb114ab4bdb1130bU, 0xbde78f0fbd50db63U,
  0x3cb59d61bdc33c62U, 0xbc114ab4bd883609U, 0x3cb59d61bdb1130bU, 0xbcec1964bc7e42bbU,
  0x3cc7c6b8bb914ab4U, 0xbda7fe60bc7e42bbU, 0xbdac88b63cec1964U, 0x3d0836093d114ab4U,
  0xbcec19643bd9f00eU, 0xbc359d61bd6c1964U, 0x3d7e42bbbd083609U, 0x3d3eb20c3c114ab4U,
  0xbd3eb20c3d359d61U, 0x3dd9f00e3c359d61U, 0x3dd9f00ebda7fe60U, 0x3d95d50abdb1130bU,
  0x3b914ab4bdf0a3baU, 0x3c114ab4bdc7c6b8U, 0x3dc33c623d47c6b8U, 0xbb914ab4bc914ab4U,
  0xbc7e42bb3bd9f00eU, 0xbc359d613da3740aU, 0x3d359d613c59f00eU, 0x3ca3740abdb59d61U,
  0x3d23740abd114ab4U, 0xbd7e42bbbca3740aU, 0xbcd9f00ebd50db63U, 0x3d83abb33dbeb20cU,
  0x3cc7c6b8be03abb3U, 0xbd23740abc914ab4U, 0xbd2c88b63d359d61U, 0xbd0836093d23740aU,
  0x3d6304b9bd6304b9U, 0xbcc7c6b8bd2c88b6U, 0xbc59f00ebb914ab4U, 0xbcb59d61bcd9f00eU,
  0x3b114ab4bd3eb20cU, 0x3d1a5f5fbdd9f00eU, 0x3d9a5f5fbd083609U, 0x3cc7c6b8bdba27b7U,
  0xbdc7c6b8bdd565b8U, 0x3cfe42bb3d6c1964U, 0x3c7e42bb3db59d61U, 0xbd114ab43cfe42bbU,
  0xbd83abb3bd47c6b8U, 0xbcfe42bbbdd565b8U, 0xbcb59d613d114ab4U, 0xbd9ee9b5be0f0589U,
  0xbcec19643dba27b7U, 0xbd752e103d1a5f5fU, 0x3d3eb20cbd359d61U, 0xbd8836093c359d61U,
  0xbd8cc05ebdd565b8U, 0xbdb59d61bd47c6b8U, 0xbda7fe603dc7c6b8U, 0x3b914ab4bd50db63U,
  0xbc359d61bde304b9U, 0x3d6304b93cd9f00eU, 0xbd9a5f5fbb114ab4U, 0xbdba27b7bcfe42bbU,
  0xbbd9f00e3d2c88b6U, 0x3d59f00ebdde7a64U, 0xbc914ab4bda7fe60U, 0x3cc7c6b83ca3740aU,
  0xbc7e42bbbd3eb20cU, 0xbc359d61be016688U, 0xbd8cc05e3d752e10U, 0xbe37e28cbdac88b6U,
  0x3c59f00ebcfe42bbU, 0x3b114ab43df0a3baU, 0x3d95d50a3d359d61U, 0xbd50db6300000000U,
  0x3d2c88b6bcc7c6b8U, 0xbd6c1964bd752e10U, 0xbca3740abb914ab4U, 0xbcd9f00e3da7fe60U,
  0xbc114ab4bdac88b6U, 0xbcd9f00e3c359d61U, 0xbd95d50a3d2c88b6U, 0xbd2c88b6bc59f00eU,
  0xbd23740a3d3eb20cU, 0x3e114ab43d6c1964U, 0xbd8836093d47c6b8U, 0x3ca3740abdbeb20cU,
  0x3dba27b73b114ab4U, 0xbd1a5f5fbb114ab4U, 0x3dfe42bbbc114ab4U, 0x3d752e10bd95d50aU,
  0x3c114ab4bdfe42bbU, 0x3dc7c6b8bc7e42bbU, 0x3d7e42bbbb114ab4U, 0x3d6304b93d9ee9b5U,
  0x3d114ab4bc914ab4U, 0xbe1ca48a3bd9f00eU, 0x3d7e42bb3dcc510dU, 0x3d83abb3bdac88b6U,
  0xbde304b93e90281fU, 0xbbd9f00e3e4c510dU, 0x3cfe42bb3dba27b7U, 0xbe359d613d359d61U,
  0x3c56b5cdbc939cfdU, 0x3e098c773d352965U, 0x3dae73b73d139cfdU, 0x3d4294c23d96f7d4U,
  0xbe2b18dfbad6b5cdU, 0xbce4212a3da46331U, 0x3c0631a0bc21085aU, 0xbd0ce74f3c8631a0U,
  0xbde0c6533d82d6c9U, 0x3ad6b5cdbd56b5cdU, 0xbd56b5cdbce4212aU, 0xbc3bdf13U,
  0x3ca1085abc3bdf13U, 0xbc56b5cd3ca1085aU, 0x3d4294c23c0631a0U, 0x3c939cfd3d3bdf13U,
  0x3c8631a0bd50001fU, 0x3bd6b5cdbde0c653U, 0x3ddd6b7b3d27be08U, 0x3d3529653d0631a0U,
  0xbd352965bcbbdf13U, 0xbdab18df3e550861U, 0x3ce4212abca1085aU, 0xbd27be083bd6b5cdU,
  0xbdc294c23e154a69U, 0xbe18a540bc3bdf13U, 0xbc8631a0bb56b5cdU, 0xbc718c87bd718c87U,
  0xbcfef7e3bd904226U, 0x3cae73b7U, 0x3de77c01be01295dU, 0x3da7be083ca1085aU,
  0xbcae73b7bd9a52abU, 0x3d494a70bd5d6b7bU, 0x3c21085a3d5d6b7bU, 0x3db8843c3db8843cU,
  0xbce4212abdc5ef99U, 0x3ba1085a3e18a540U, 0x3ce4212abe1c0017U, 0xbce4212a3bd6b5cdU,
  0x3d3bdf133e352965U, 0xbdead6d8bdc94a70U, 0x3c3bdf13bdab18dfU, 0xbb56b5cd3c718c87U,
  0xbd9a52abbdb52965U, 0xbd939cfdbd0ce74fU, 0x3d9a52abbd139cfdU, 0xbd82d6c93dc294c2U,
  0xbd96f7d4bdb1ce8eU, 0xbd1a52ab3cf18c87U, 0xbcf18c873d2e73b7U, 0x3de4212abdb1ce8eU,
  0xbd494a70bd27be08U, 0x3d898c773ddd6b7bU, 0xbba1085abdead6d8U, 0xbd6ad6d8bd1a52abU,
  0xbd718c873d8631a0U, 0xbd904226bd352965U, 0xbca1085abd2e73b7U, 0x3bd6b5cd3b56b5cdU,
  0x3ce4212a3cd6b5cdU, 0xbdb1ce8e3de77c01U, 0x3bd6b5cdbdf18c87U, 0x3db1ce8ebd0ce74fU,
  0xbdbf39eb3cae73b7U, 0xbd50001fbd1a52abU, 0x3cfef7e33dead6d8U, 0x3d0ce74fbc939cfdU,
  0x3da46331bc56b5cdU, 0x3d3529653dead6d8U, 0xbcd6b5cdbdda10a4U, 0xbd0ce74f3c21085aU,
  0xbe2e73b7bc0631a0U, 0xbd9dad83bc939cfdU, 0xbcbbdf13bbd6b5cdU, 0x3c939cfd3d0ce74fU,
  0xbc56b5cd3d96f7d4U, 0xbe1f5aee3db1ce8eU, 0x3d3bdf13bd8ce74fU, 0x3df84235bdae73b7U,
  0xbe0b39e3bdb52965U, 0xbd0631a0bd64212aU, 0xbdc5ef993cbbdf13U, 0x3d7ef7e3bce4212aU,
  0xbd8631a0bde77c01U, 0x3cfef7e33d82d6c9U, 0x3cae73b7be22b5c5U, 0x3d50001fU,
  0x3d4294c23e11ef91U, 0xbdfb9d0cbd21085aU, 0xbd139cfd3d1a52abU, 0x3d82d6c93cae73b7U,
  0xbcae73b7bc8631a0U, 0xbd6ad6d8bde77c01U, 0x3b56b5cdbd0631a0U, 0xbd96f7d43c3bdf13U,
  0xbc56b5cdbd0631a0U, 0xbce4212abde0c653U, 0xbbd6b5cdbd718c87U, 0x3d898c77bc3bdf13U,
  0xbc56b5cdbd8ce74fU, 0xbd898c773da1085aU, 0x3cfef7e33d8631a0U, 0x3ad6b5cd3dcca547U,
  0xbd0ce74f3dab18dfU, 0xbe0484353d0631a0U, 0x3df4e75e3db52965U, 0x3dda10a43df4e75eU,
  0x3dc94a703d139cfdU, 0xbd1a52abbcc94a70U, 0x3e1dad833d0ce74fU, 0xbcd6b5cd3ba1085aU,
  0xbcae73b7bc0631a0U, 0xbe337bf9U, 0xbd3529653cae73b7U, 0x3c56b5cd3d27be08U,
  0x3d718c873c21085aU, 0xbbd6b5cd3d64212aU, 0x3ca1085a3c0631a0U, 0x3da463313dc94a70U,
  0xbc718c87bad6b5cdU, 0xbdb52965bcae73b7U, 0x3dae73b73de0c653U, 0xbd718c87bd21085aU,
  0xbc56b5cd3dcca547U, 0xbe139cfd3cf18c87U, 0x3da1085abcfef7e3U, 0x3de77c01bd4294c2U,
  0xbd139cfdbdc5ef99U, 0x3cd6b5cdbd8ce74fU, 0xbd6ad6d8bd50001fU, 0x3c21085a3bd6b5cdU,
  0xbd0ce74fbd352965U, 0x3c21085abd64212aU, 0xbdbf39eb3d50001fU, 0x3e07df0c3b56b5cdU,
  0xbc718c873c939cfdU, 0xbbd6b5cd3d784235U, 0xbca1085a3d352965U, 0x3d9a52abbc3bdf13U,
  0xbd21085aU, 0xbd8631a0bd8ce74fU, 0x3e18a540bda7be08U, 0x3d0631a0bdb52965U,
  0xbd5f8bebbda3ef24U, 0x3c6e731dbd8266f4U, 0xbdb690223c1507f2U, 0xbb6e731d00000000U,
  0xbdbe03bbbd32d656U, 0xbde345b83cb2d656U, 0xbda7a8f0bd0620c0U, 0xbb6e731d3bee731dU,
  0x3d0d94593d581852U, 0x3cee731dbd2b62bdU, 0xbdb69022bda3ef24U, 0xbc9507f23cee731dU,
  0x3cee731dbd1507f2U, 0xbd8620c0bda3ef24U, 0x3d50a4b9bcee731dU, 0xbd98c1bf3bee731dU,
  0xbd32d6563c8620c0U, 0xbc9507f2bcdf8bebU, 0xbc9507f23cdf8bebU, 0xbd1507f2bcee731dU,
  0xbda7a8f0bb6e731dU, 0xbc8620c0bd3a49efU, 0xbd32d656bd2b62bdU, 0x3ca3ef243c32d656U,
  0xbd3a49efbde6ff84U, 0xbbb2d656bcfd5a4fU, 0xbd2b62bdbd5f8bebU, 0xbd3a49ef3c1507f2U,
  0x3d89da8dbd66ff84U, 0x3c32d656bd8d9459U, 0xbbee731d3cd0a4b9U, 0x3cdf8bebbd66ff84U,
  0xbd1507f2baee731dU, 0xbc32d656bdb2d656U, 0x3d3a49ef3d2b62bdU, 0x3ddbd21fbc32d656U,
  0x3c6e731dbd3a49efU, 0x3cee731d3e1507f2U, 0xbdd0a4b9U, 0xbbb2d6563cc1bd88U,
  0xbd66ff84bd23ef24U, 0xbdc1bd88bd0d9459U, 0x3cdf8beb3e07fda7U, 0xbc8620c0bd1507f2U,
  0xbd9c7b8b3da7a8f0U, 0xbd1507f23d9c7b8bU, 0x3d1507f23b6e731dU, 0x3d9c7b8b3aee731dU,
  0xbd914e26bcb2d656U, 0x3d1c7b8b3d914e26U, 0xbd50a4b93aee731dU, 0x3e008a0ebddf8bebU,
  0x3bee731dbcc1bd88U, 0xbc9507f2bcee731dU, 0xbaee731dbddf8bebU, 0xbd4931203cee731dU,
  0x3dc577543df9a082U, 0x3d41bd883aee731dU, 0x3ca3ef24bc1507f2U, 0x3c8620c03da7a8f0U,
  0x3c32d656bcfd5a4fU, 0xbd8d94593b6e731dU, 0x3c1507f2bd0620c0U, 0xbd8620c03cc1bd88U,
  0xbcc1bd88bc50a4b9U, 0x3db2d6563cb2d656U, 0x3aee731d3c32d656U, 0xbd2b62bd3c32d656U,
  0xbda3ef243c1507f2U, 0xbd1c7b8bbbb2d656U, 0x3c6e731dbd0620c0U, 0xbda03557bc50a4b9U,
  0x3d0d9459bbb2d656U, 0x3dc931203d914e26U, 0xbd3a49efbd50a4b9U, 0x3d0d94593cfd5a4fU,
  0xbcee731d3cee731dU, 0x3d8266f400000000U, 0xbd0620c0bd1507f2U, 0x3d50a4b93d41bd88U,
  0xbca3ef243daf1c89U, 0x3c9507f2bd0d9459U, 0xbcdf8bebbd23ef24U, 0x3cdf8beb3c8620c0U,
  0x3aee731d3d3a49efU, 0xbd8266f43dc93120U, 0x3aee731d3d32d656U, 0xbd0620c03cd0a4b9U,
  0xbdba49ef3d0d9459U, 0x3aee731dbca3ef24U, 0x3d5818523ca3ef24U, 0x3d3a49efbda03557U,
  0x3d1507f23d1507f2U, 0xbd50a4b9bd50a4b9U, 0x3dba49efbc1507f2U, 0xbbb2d6563d41bd88U,
  0xbd914e26bdf22ce9U, 0x3cd0a4b9bd8266f4U, 0xbd914e26bbb2d656U, 0x3d98c1bfbd32d656U,
  0xbd89da8dbe18c1bfU, 0xbddbd21f3e114e26U, 0xbda3ef24bd98c1bfU, 0x3d5818523aee731dU,
  0xbd0620c03e6c9637U, 0xbddbd21f3cd0a4b9U, 0xbcfd5a4fbd1c7b8bU, 0x3d3a49ef3cb2d656U,
  0xbcfd5a4fbc32d656U, 0xbd9507f2bdfd5a4fU, 0x3dcceaedbcc1bd88U, 0xbd9c7b8bU,
  0xbc6e731dbc9507f2U, 0xbc1507f2bdab62bdU, 0x3d75e6b63d3a49efU, 0xbd1507f2bcdf8bebU,
  0xbd5f8bebbc8620c0U, 0xbcb2d6563cee731dU, 0x3ca3ef243d7d5a4fU, 0x3d98c1bf3b6e731dU,
  0xbe0f713fbcfd5a4fU, 0xbcdf8bebbcee731dU, 0xbdc577543c1507f2U, 0xbd1507f23cee731dU,
  0x3cd0a4b93d8620c0U, 0xbaee731dbcee731dU, 0x3d98c1bfbd75e6b6U, 0xbcfd5a4fbcc1bd88U,
  0xbb6e731d3d66ff84U, 0xbd2b62bdbd8266f4U, 0x3c6e731d3d9507f2U, 0xbbb2d656bbb2d656U,
  0xbd1507f23b6e731dU, 0xbd3a49ef3d98c1bfU, 0xbcd0a4b93c1507f2U, 0xbc8620c0bc8620c0U,
  0xbe18c1bfbd0d9459U, 0xbdba49ef3c9507f2U, 0xbd2b62bd3d0620c0U, 0xbb6e731dbc8620c0U,
  0xbbee731dbd8d9459U, 0xbcdf8bebbcb2d656U, 0x3bb2d656bdf22ce9U, 0x3dcceaedbd7d5a4fU,
  0xbe0d21cdbd9787ffU, 0x3e013f4bbabe2827U, 0xbca66322be1196beU, 0xbe07308cbe0a292cU,
  0xbc6db231bc8e9e1dU, 0xbd8ba57dbc266322U, 0xbe1ef591bdb53e45U, 0x3cd5ed2cbd3e2827U,
  0x3e101a6e00000000U, 0xbd4ffbeb3d82bb9bU, 0xbcd5ed2c3dfc8d54U, 0xbe2071e13dbe2827U,
  0x3de1cfaebd85b43bU, 0xbddbde6dbd08acdcU, 0x3d3e2827bd67c0f0U, 0x3d3836e600000000U,
  0xbc0e9e1d3c82bb9bU, 0x3cd5ed2cbd2071e1U, 0xbdac54633cedb231U, 0xbbedb2313c82bb9bU,
  0xbd67c0f03c3e2827U, 0x3cca0aa9bd7f85f4U, 0xbd8e9e1dbcbe2827U, 0x3ce1cfae3d148f5eU,
  0x3bbe28273d55ed2cU, 0xbabe28273d55ed2cU, 0x3c82bb9b3d148f5eU, 0x3d73a3723d8e9e1dU,
  0x3bbe28273da071e1U, 0x3b8e9e1d3bedb231U, 0x3c55ed2cbd82bb9bU, 0xbd3836e63c0e9e1dU,
  0x3d0e9e1dbd02bb9bU, 0x3c0e9e1d3dbb2f86U, 0x3bbe2827bd9787ffU, 0xbe1a80a03da66322U,
  0xbdeab9903d7994b3U, 0xbe05b43bbc6db231U, 0xbd73a372bcb245a5U, 0xbd85b43b3b3e2827U,
  0xbd148f5ebd148f5eU, 0x3d08acdcbc0e9e1dU, 0xbc6db2313da66322U, 0xbcbe28273d6db231U,
  0x3d3245a5be0d21cdU, 0x3d9196bebcca0aa9U, 0x3c6db2313d3836e6U, 0x3dc71209bc9a80a0U,
  0xbd7994b3bbbe2827U, 0x3d7f85f43b8e9e1dU, 0x3b3e28273c55ed2cU, 0xbd3836e6be1196beU,
  0x3d2c5463bd266322U, 0xbd55ed2c3d08acdcU, 0xbd55ed2cbdd8e5ccU, 0x3b8e9e1dbd3836e6U,
  0x3ce1cfaebc6db231U, 0x3dc712093c82bb9bU, 0xbdd2f48bbd0e9e1dU, 0xbdb53e453e2f4d04U,
  0x3ce1cfae3d55ed2cU, 0xbdeab990bd4a0aa9U, 0xbd67c0f0bbbe2827U, 0x3df0aad13df0aad1U,
  0x3d85b43b3d1a80a0U, 0x3d148f5e3b8e9e1dU, 0xbd73a3723c3e2827U, 0xbc0e9e1dbd55ed2cU,
  0xbbbe28273cb245a5U, 0xbd148f5ebcb245a5U, 0x3d08acdc3d6db231U, 0x3d5bde6dbd1a80a0U,
  0xbd55ed2cbcedb231U, 0xbd148f5ebc55ed2cU, 0xbda36a82bce1cfaeU, 0xbc266322bd9787ffU,
  0x3cf994b33dbe2827U, 0xbc9a80a03c55ed2cU, 0x3da36a82bc55ed2cU, 0xbda95bc33c82bb9bU,
  0xbe0437ebbcb245a5U, 0x3d82bb9b3d55ed2cU, 0x3bbe2827bd55ed2cU, 0xbd7994b33d67c0f0U,
  0xbd67c0f0bc3e2827U, 0xbddbde6dbd1a80a0U, 0x3b8e9e1dbd9d7940U, 0x3d0e9e1dbcca0aa9U,
  0xbc9a80a0babe2827U, 0x3ca663223c0e9e1dU, 0xbdbb2f86bd67c0f0U, 0x3cbe28273de7c0f0U,
  0x3d02bb9bbdf3a372U, 0xbdbb2f86bd61cfaeU, 0xbd8ba57dbc0e9e1dU, 0x3e0ba57dbd441968U,
  0xbd1a80a0bdb53e45U, 0x3da66322bce1cfaeU, 0xbcf994b3bd9787ffU, 0xbdc120c8bd148f5eU,
  0xbd4a0aa9bd88acdcU, 0xbd8e9e1dbc82bb9bU, 0xbdb836e6bc82bb9bU, 0xbd02bb9bbcb245a5U,
  0x3d148f5e3bbe2827U, 0x3ce1cfae3dd8e5ccU, 0xbdb245a53d5bde6dU, 0xbdb245a5bd02bb9bU,
  0x3e2663223c0e9e1dU, 0x3cbe2827bbedb231U, 0x3da071e1bdc41968U, 0x3d02bb9bbdb53e45U,
  0xbd02bb9b3d0e9e1dU, 0xbd2c5463bdbe2827U, 0xbbedb231babe2827U, 0x3d61cfaebcedb231U,
  0xbd948f5ebcb245a5U, 0x3d6db2313d08acdcU, 0xbcbe28273cedb231U, 0x3c3e2827bcf994b3U,
  0xbd88acdcbc266322U, 0xbd148f5e3d948f5eU, 0x3c82bb9bbd67c0f0U, 0x3d148f5e3d4a0aa9U,
  0x3ca663223cedb231U, 0xbdb53e45bcf994b3U, 0xbb8e9e1dbd3e2827U, 0x3d3836e63b8e9e1dU,
  0xbb3e2827bd8ba57dU, 0x3abe2827bd148f5eU, 0xbd02bb9bbd61cfaeU, 0xbda36a823d73a372U,
  0xbc55ed2cbabe2827U, 0xbe0ba57d3c9a80a0U, 0xbdf3a3723c55ed2cU, 0xbc0e9e1dbd85b43bU,
  0xbd1a80a03d148f5eU, 0xbc8e9e1dbd148f5eU, 0xbd5bde6dbdf0aad1U, 0xbda663223e3cabd7U,
  0x3e101a6ebdd8e5ccU, 0x3dca0aa9be27df72U, 0x3bedb231bd73a372U, 0x3ddbde6dbdf3a372U,
  0xbde8c85dbca3b71dU, 0x3cadf28fbb23b71dU, 0xbaa3b71d3c23b71dU, 0x3d8793a43d663981U,
  0x3d7ab0643ceb573aU, 0x3dde8ceb3d0f4039U, 0x3d56e0563ba3b71dU, 0xbd382e013c997babU,
  0x3aa3b71d3dab63b2U, 0xbd1e9964bdeb573aU, 0x3ca3b71dbc0f4039U, 0x3cd6e0563bcca4e4U,
  0x3d47872b3d3d4bbaU, 0x3db59f24bcd6e056U, 0xbd0f40393ca3b71dU, 0xbd0f40393d2df28fU,
  0xbcc269723c8504c8U, 0xbd2df28f00000000U, 0x3c611bc83db31048U, 0x3d91cf163b23b71dU,
  0x3c4ca4e43c23b71dU, 0x3ccca4e43cadf28fU, 0x3db31048bd23b71dU, 0xbba3b71d3d8f4039U,
  0x3c4ca4e43ccca4e4U, 0xbd331048be1d51f6U, 0x3b23b71dbbf592acU, 0x3dca16083bcca4e4U,
  0x3ceb573a3dab63b2U, 0x3d3d4bba3dadf28fU, 0xbd7fce1dbd426972U, 0xbc611bc8bd611bc8U,
  0xbd28d4d63ceb573aU, 0xbdab63b23d1e9964U, 0xbc7592ac3d8793a4U, 0x3d1e99643d8a2280U,
  0xbcadf28fbd4ca4e4U, 0x3d56e056bc7592acU, 0xbc7592acbcf592acU, 0xbd8275eb3ba3b71dU,
  0xbd28d4d63c382e01U, 0xbb7592acbd8a2280U, 0xbd3d4bbabd96eccfU, 0x3e0275eb3d7ab064U,
  0x3cf592ac3c8f4039U, 0x3d663981bceb573aU, 0xbddbfe0f3c8f4039U, 0xbd47872b3b7592acU,
  0xbc611bc8bc7592acU, 0xbd0f4039bd426972U, 0x3d0a22803ba3b71dU, 0xbc8504c83d331048U,
  0x3c8f4039bdd96f33U, 0xbd611bc83aa3b71dU, 0x3c997babbc8f4039U, 0x3d8cb15d3c4ca4e4U,
  0xbd3310483c997babU, 0xbd8275ebbd28d4d6U, 0xbc0f4039bc0f4039U, 0x3d8793a43d0504c8U,
  0xbca3b71dbd7074f3U, 0x3da8d4d63da12841U, 0xbcadf28f3d91cf16U, 0xbdd4517abd611bc8U,
  0x3db82e01bc611bc8U, 0xbd997babbceb573aU, 0xbc8504c83d426972U, 0xbcadf28fbd47872bU,
  0xbc611bc8bd96eccfU, 0xbdc7872b3b23b71dU, 0x3d8a22803aa3b71dU, 0x3dc7872b3dc4f84fU,
  0xbd382e01bd3d4bbaU, 0xbe0b69ef00000000U, 0x3d1e99643d1e9964U, 0x3ce11bc8bd23b71dU,
  0xbc382e01bd382e01U, 0xbd8a22803d7074f3U, 0x3d6639813ba3b71dU, 0xbd8cb15dbe11cf16U,
  0x3e0504c83d47872bU, 0x3ccca4e4bc23b71dU, 0xbccca4e43c8504c8U, 0xbcadf28f3c23b71dU,
  0xbc4ca4e4bd8504c8U, 0xbda12841bd4ca4e4U, 0x3d6b573a3ceb573aU, 0x3e1ac3193d145df2U,
  0xbd426972bd51c29dU, 0xbdd4517a3cadf28fU, 0xbc0f4039bbf592acU, 0x3cffce1dbba3b71dU,
  0xbbf592ac3d0f4039U, 0x3d3d4bbabb23b71dU, 0x3d7ab0643c8504c8U, 0x3bcca4e4bdc7872bU,
  0x3d8cb15d3de11bc8U, 0xbe0cb15dbb23b71dU, 0xbda3b71d3dcf33c1U, 0x3cffce1d3dab63b2U,
  0xbd7ab064bd145df2U, 0x3d7ab064bc23b71dU, 0xbd2df28fbbcca4e4U, 0xbe226faf3dc26972U,
  0xbd91cf16bdc7872bU, 0xbd945df2bcffce1dU, 0x3c382e01bd28d4d6U, 0x3e15a5613cadf28fU,
  0xbd0a2280baa3b71dU, 0xbaa3b71dbe0b69efU, 0x3d7ab064bdbfda96U, 0x3c382e01bd8f4039U,
  0x3d6639813c611bc8U, 0xbd7ab064bd8f4039U, 0xbc23b71d3bf592acU, 0x3c8504c8U,
  0xbd3d4bba3c382e01U, 0xbd1e9964bd7074f3U, 0x3d145df23c997babU, 0xbd4269723cf592acU,
  0xbcffce1dbbf592acU, 0x3cadf28fbb7592acU, 0xbc8504c83bcca4e4U, 0x3ba3b71dbb23b71dU,
  0x3c7592ac3dc4f84fU, 0x3d7fce1d3cffce1dU, 0x3c0f40393d0f4039U, 0x3d7ab0643ba3b71dU,
  0xbc382e01bb23b71dU, 0xbc997babbd8cb15dU, 0xbd91cf16bd8504c8U, 0xbc8504c8bce11bc8U,
  0x3c23b71d3bcca4e4U, 0x3ceb573abdc7872bU, 0x3cb82e01bc4ca4e4U, 0xbdca1608bd0504c8U,
  0xbda3b71dbc8504c8U, 0xbceb573abdbd4bbaU, 0x3c382e01bc23b71dU, 0x3bf592acbd945df2U,
  0xbbf592acU, 0xbc7592acbd145df2U, 0x3d1e99643bf592acU, 0xbce11bc8bcf592acU,
  0x3bb6d0a4bda2d1d2U, 0x3d5ece48bd864138U, 0xbd3c8729bd9764c8U, 0xbe356303bc091c7bU,
  0xbda888573d1ff690U, 0xbd3c8729bc36d0a4U, 0x3d47f433bd9d1b4dU, 0x3c36d0a4bd91ae43U,
  0x3c948985bc4daab8U, 0x3d4daab83d8bf7beU, 0xbd6ff1d73b36d0a4U, 0xbe01f8553d9764c8U,
  0x3ded1695bc4daab8U, 0xbdc23dae3ccdaab8U, 0x3db11a1f3da5ad15U, 0x3c9489853c4daab8U,
  0xbd9764c8bd808ab3U, 0x3d148985bd9ff690U, 0x3c091c7bbddece48U, 0xbd5917c300000000U,
  0xbd9489853ab6d0a4U, 0xbe0d655f3d6a3b52U, 0xbd5917c3bd36d0a4U, 0x3d8bf7be3be484cdU,
  0x3d2b639a3c7b5ee2U, 0xbbb6d0a43db9abe7U, 0xbd4daab8bd53613eU, 0xbe01f8553cfb5ee2U,
  0x3d8bf7bebe0bf7beU, 0xbe1d1b4dbded1695U, 0x3de1a98abd91ae43U, 0xbd1a400abbb6d0a4U,
  0xbcab639abd148985U, 0x3e008ab33d423daeU, 0x3b36d0a4bd9764c8U, 0xbda5ad153cd917c3U,
  0x3cc23dae3de484cdU, 0xbd4daab83ccdaab8U, 0xbd8365f6bd864138U, 0x3c7b5ee2bd91ae43U,
  0x3dd3613e3cab639aU, 0x3c6484cd3d0ed300U, 0xbd6a3b523c6484cdU, 0xbd1a400a3d091c7bU,
  0x3d8ed300bd8bf7beU, 0xbd8365f6bd808ab3U, 0x3da5ad15bd47f433U, 0x3c9489853cfb5ee2U,
  0x3c4daab8bcab639aU, 0x3cd917c3bc9ff690U, 0x3ab6d0a4bd25ad15U, 0xbdc23daebb36d0a4U,
  0x3d6484cd3dae3edcU, 0xbd8bf7be3cd917c3U, 0x3d1ff690bd808ab3U, 0xbb891c7b3bb6d0a4U,
  0xbd311a1fbd9ff690U, 0xbcc23daebc948985U, 0xbde484cdbce484cdU, 0xbd2b639a3ddbf305U,
  0x3d1ff6903d91ae43U, 0xbab6d0a43d423daeU, 0xbdc7f4333ceff1d7U, 0x3d8641383d891c7bU,
  0xbd6a3b52bdea3b52U, 0xbd4daab8bda2d1d2U, 0x3c4daab83d1ff690U, 0xbd1a400a3d0ed300U,
  0xbcc23daebbe484cdU, 0xbc091c7b3c7b5ee2U, 0xbcb6d0a4bd311a1fU, 0xbd948985bd5917c3U,
  0xbd091c7b3c091c7bU, 0x3b36d0a4bd8ed300U, 0xbd891c7bbd6ff1d7U, 0xbd5ece483db11a1fU,
  0x3d311a1f3b891c7bU, 0xbde484cdbdae3edcU, 0xbc4daab83c7b5ee2U, 0x3d423dae3cb6d0a4U,
  0xbc9ff690bc4daab8U, 0x3d91ae43bc7b5ee2U, 0x3ceff1d7bc9ff690U, 0xbd91ae433cb6d0a4U,
  0x3d808ab33ce484cdU, 0xbd6a3b523ab6d0a4U, 0xbc7b5ee2U, 0x3d808ab3bd6484cdU,
  0xbc948985bd8365f6U, 0x3cc23dae3dae3edcU, 0xbbe484cdbdd63c80U, 0xbde760103d423daeU,
  0x3c7b5ee23d1ff690U, 0xbd75a85cbd948985U, 0xbdc23dae3d4daab8U, 0xbcb6d0a43dbf626cU,
  0x3ccdaab83da5ad15U, 0xbc091c7b3c091c7bU, 0xbd8bf7bebc1ff690U, 0x3cc23daebd891c7bU,
  0x3cab639a3c36d0a4U, 0x3d53613ebd36d0a4U, 0xbcab639abc7b5ee2U, 0xbdbc87293d0ed300U,
  0x3c091c7bbd3c8729U, 0xbc36d0a43d53613eU, 0xbd091c7b3dae3edcU, 0xbc6484cd3d5ece48U,
  0x3cab639a3cfb5ee2U, 0xbceff1d7bc9ff690U, 0xbcab639a3be484cdU, 0x3d808ab3bcfb5ee2U,
  0xbd25ad153cd917c3U, 0xbd53613ebcc23daeU, 0xbd6a3b52bd1ff690U, 0xbcd917c33d0365f6U,
  0xbd9d1b4dbccdaab8U, 0xbd6ff1d7bdae3edcU, 0x3c4daab8bc948985U, 0xbd9ff690bd091c7bU,
  0x3d423daebd4daab8U, 0xbc948985bc091c7bU, 0xbd47f4333b891c7bU, 0xbc948985bd808ab3U,
  0x3ab6d0a43d91ae43U, 0xbd0365f6bd5ece48U, 0x3c36d0a4bd864138U, 0xbd5917c3bab6d0a4U,
  0x3d1ff690U, 0xbd6a3b523ab6d0a4U, 0xbceff1d7bcd917c3U, 0xbd5917c33cab639aU,
  0xbbb6d0a43d7b5ee2U, 0xbceff1d7bd0365f6U, 0xbc091c7bbd8bf7beU, 0xbdd3613e3ab6d0a4U,
  0x3d0ed3003c948985U, 0xbd5ece483c36d0a4U, 0xbd311a1fbcb6d0a4U, 0x3b36d0a43be484cdU,
  0x3dc7f433bd6484cdU, 0x3be484cdbcab639aU, 0x3c891c7bbdb3f561U, 0x3d311a1f3ab6d0a4U,
  0xbd88c6a4bd27dc84U, 0xbdaaf84d3c88c6a4U, 0xbbc6f263bb9535caU, 0xbbc6f263bcf8aefcU,
  0x3c1535cabdcd29f6U, 0x3e296a68bc9535caU, 0x3d5fd0afbd85aadbU, 0xbb46f2633d0efe37U,
  0x3d6c3fd6bdb12fe0U, 0xbcae1417bdd36189U, 0x3d85aadb3bf8aefcU, 0x3e1535cabcd36189U,
  0xbd4d29f63c88c6a4U, 0xbdcd29f6bcae1417U, 0xbd1b6d5dbc9535caU, 0xbdaaf84dbd9e8927U,
  0xbd46f263bcba833dU, 0x3b46f263bd536189U, 0x3b46f2633d9535caU, 0x3cf8aefcbc78aefcU,
  0xbdd045c03c1535caU, 0xbd3a833dbcdfd0afU, 0x3cae1417bdf8aefcU, 0xbd59991c3d4d29f6U,
  0xbbf8aefcbcba833dU, 0x3bc6f263bd727769U, 0xbd536189bd78aefcU, 0x3d88c6a43dba833dU,
  0xbd21a4f03c9535caU, 0x3c1535cabd3a833dU, 0xbca1a4f03d46f263U, 0xbd27dc84bd08c6a4U,
  0xbdca0e2dbd08c6a4U, 0x3cc6f263bd5fd0afU, 0x3cec3fd63da4c0baU, 0x3b9535cabb9535caU,
  0x3cf8aefcbd4d29f6U, 0x3d7ee68f3cdfd0afU, 0x3e19df79bcd36189U, 0xbc5fd0af3d59991cU,
  0xbc1535cabd9e8927U, 0xbdc6f263be108c1cU, 0x3c5fd0afbac6f263U, 0x3cae1417bd21a4f0U,
  0xbd40bad03daaf84dU, 0xbd0efe373ddcb4e6U, 0xbcba833d3d0efe37U, 0xbd1535ca3cd36189U,
  0x3d59991c3d1b6d5dU, 0xbcf8aefc3b46f263U, 0xbc1535ca3db12fe0U, 0x3b9535cabd21a4f0U,
  0xbd0efe37bd4d29f6U, 0x3c78aefcbd7ee68fU, 0xbd4d29f63ca1a4f0U, 0x3d8be26ebc9535caU,
  0x3dba833dbc5fd0afU, 0x3d028f11U, 0x3e041cf6be0d7052U, 0x3d921a01bdbd9f06U,
  0x3d1b6d5d3cdfd0afU, 0xbd27dc84bda7dc84U, 0x3db12fe0bd344baaU, 0xbcae1417bde60842U,
  0x3d9535cabd8be26eU, 0xbac6f2633ca1a4f0U, 0xbcae14173d27dc84U, 0x3b9535cabd1b6d5dU,
  0x3c9535ca3b46f263U, 0x3bf8aefcbd7ee68fU, 0xbd88c6a4bc9535caU, 0xbc5fd0af3c78aefcU,
  0xbd46f2633d921a01U, 0xbc5fd0af3b46f263U, 0x3db12fe0bd9535caU, 0x3d985194bd2e1417U,
  0x3cae1417bd8efe37U, 0x3ac6f263bd536189U, 0x3dc6f2633cba833dU, 0x3d08c6a4bd344baaU,
  0xbcdfd0afbd536189U, 0x3c2e14173cc6f263U, 0x3d536189bc1535caU, 0xbb46f263bd985194U,
